PAD	0
UNK	0
CLS	0
SEP--token_size=8000	0
▁be	-3.16008
▁i	-3.18454
▁to	-3.68826
▁the	-3.85486
▁a	-4.01135
▁	-4.26477
▁not	-4.28035
▁my	-4.36801
▁it	-4.38837
▁you	-4.39566
▁and	-4.44069
▁have	-4.45945
▁*	-4.5004
▁do	-4.61782
e	-4.67772
▁in	-4.71598
▁for	-4.72896
▁on	-4.81497
▁go	-4.83461
s	-4.87787
▁of	-4.92521
▁get	-4.92548
▁that	-4.93074
▁me	-4.99638
y	-5.0197
▁so	-5.07127
▁day	-5.18527
▁but	-5.20364
ly	-5.21513
▁just	-5.26002
▁with	-5.2706
▁at	-5.41328
▁can	-5.43107
▁good	-5.43902
▁will	-5.46965
▁all	-5.55202
▁no	-5.5727
▁now	-5.62373
▁this	-5.63229
▁work	-5.63406
▁out	-5.63848
▁up	-5.65087
▁love	-5.6782
▁like	-5.70211
▁'	-5.71779
er	-5.71888
d	-5.76022
ing	-5.77059
t	-5.86033
[	-5.86421
]	-5.86581
L	-5.86661
R	-5.86661
U	-5.86661
▁see	-5.89194
▁your	-5.9134
▁we	-5.92416
▁today	-5.94123
▁some	-5.95388
▁well	-5.95828
▁too	-5.97002
▁time	-5.98537
▁what	-6.00104
▁think	-6.0161
▁know	-6.03601
▁u	-6.03868
▁one	-6.04438
▁lol	-6.06085
▁happy	-6.07486
▁make	-6.08876
▁from	-6.0947
▁want	-6.09474
▁miss	-6.10416
▁there	-6.11951
▁back	-6.12857
▁really	-6.17419
.	-6.18
▁feel	-6.18039
▁2	-6.19805
▁s	-6.22182
▁about	-6.23179
▁night	-6.26811
▁thank	-6.29089
▁its	-6.3155
▁new	-6.32014
▁if	-6.33299
▁home	-6.33802
▁how	-6.34289
▁he	-6.34875
▁come	-6.37854
▁they	-6.3995
▁look	-6.4008
r	-6.40418
▁need	-6.42753
▁oh	-6.44061
▁hope	-6.44277
▁when	-6.44793
▁as	-6.45101
▁still	-6.45364
▁say	-6.45743
▁off	-6.46023
▁more	-6.466
m	-6.46828
▁an	-6.47665
▁much	-6.48595
▁any	-6.50082
▁here	-6.50709
▁watch	-6.50943
a	-6.51891
▁great	-6.52705
▁mother	-6.55024
▁wish	-6.55404
thing	-6.5734
▁last	-6.58305
▁she	-6.58493
▁bad	-6.60455
n	-6.60587
▁twitter	-6.61108
▁sad	-6.62375
▁morning	-6.62674
▁would	-6.63352
▁her	-6.63784
▁fun	-6.64635
▁haha	-6.65211
▁take	-6.66209
▁week	-6.66516
▁sleep	-6.67513
▁or	-6.69207
▁could	-6.72767
▁tomorrow	-6.73983
▁then	-6.75008
▁again	-6.75121
▁try	-6.76195
▁why	-6.78249
▁wait	-6.78353
▁sorry	-6.79866
▁thing	-6.80011
▁tonight	-6.80156
▁man	-6.8052
▁friend	-6.83335
▁right	-6.84037
▁over	-6.85424
o	-6.85995
▁by	-6.8743
▁re	-6.87569
▁nice	-6.87934
▁very	-6.89501
ed	-6.89677
▁yeah	-6.90129
▁should	-6.906
▁though	-6.92746
▁them	-6.92934
▁may	-6.93204
▁mom	-6.93903
▁way	-6.94449
in	-6.96178
▁weekend	-6.9621
▁b	-6.97683
▁find	-6.98641
▁tweet	-7.00328
▁even	-7.00347
▁leave	-7.00371
▁w	-7.01877
▁4	-7.02025
▁show	-7.03017
▁people	-7.04202
▁hate	-7.04385
▁follow	-7.0546
▁start	-7.06569
ion	-7.07257
ce	-7.08866
▁hour	-7.09284
▁next	-7.0954
l	-7.09696
▁long	-7.09769
▁3	-7.10866
'	-7.11135
▁school	-7.115
▁play	-7.13057
▁awesome	-7.13623
▁bed	-7.13698
▁guy	-7.14902
▁him	-7.15583
th	-7.16378
▁girl	-7.17175
▁after	-7.17494
▁who	-7.17809
▁down	-7.18452
al	-7.19061
i	-7.19142
ie	-7.19363
▁yes	-7.22653
▁movie	-7.23675
▁call	-7.24541
▁1	-7.24863
▁year	-7.25009
▁suck	-7.25107
▁soon	-7.25149
▁t	-7.26296
▁use	-7.26555
▁ok	-7.26638
▁never	-7.27539
▁n	-7.27982
▁let	-7.28243
▁rain	-7.28768
p	-7.29101
▁eat	-7.29322
▁hey	-7.29342
▁little	-7.29517
day	-7.29959
▁f	-7.30623
cause	-7.31843
▁give	-7.33311
▁cool	-7.33436
▁life	-7.3436
h	-7.34621
▁tell	-7.35042
▁sure	-7.35143
▁head	-7.36279
▁his	-7.36648
▁sick	-7.37925
▁everyone	-7.37934
▁live	-7.38137
▁c	-7.38282
se	-7.38285
▁hear	-7.38302
▁where	-7.38696
▁us	-7.40192
▁mean	-7.4061
▁please	-7.40667
▁tired	-7.40701
▁d	-7.41438
▁x	-7.4149
▁talk	-7.41562
▁keep	-7.42009
first	-7.42025
▁lot	-7.42078
▁than	-7.4283
▁e	-7.43453
▁ur	-7.43709
▁our	-7.4465
▁old	-7.45263
▁another	-7.45467
▁sit	-7.45806
▁always	-7.46249
▁wanna	-7.46254
▁phone	-7.46832
▁ever	-7.48472
▁break	-7.48703
▁hurt	-7.48972
▁house	-7.49158
▁already	-7.49478
▁friday	-7.49671
▁car	-7.50302
▁other	-7.50736
▁big	-7.51161
k	-7.51495
▁star	-7.52396
▁song	-7.52622
▁read	-7.53446
fore	-7.53468
▁wake	-7.54094
▁bit	-7.54247
▁enjoy	-7.55804
▁early	-7.56343
▁hard	-7.57157
▁5	-7.57357
▁run	-7.57976
¿1⁄2	-7.58003
ï	-7.58003
ment	-7.58019
▁ready	-7.5865
▁finally	-7.58689
▁yay	-7.58957
_	-7.59757
▁buy	-7.60309
▁ya	-7.60349
yet	-7.60619
▁guess	-7.61171
▁th	-7.61477
▁pretty	-7.6164
on	-7.61756
out	-7.61783
▁same	-7.62342
▁late	-7.6293
▁omg	-7.62995
▁check	-7.63448
▁help	-7.63523
b	-7.64518
▁away	-7.64566
▁monday	-7.64968
▁r	-7.65184
le	-7.65256
▁amazing	-7.65403
▁maybe	-7.6544
▁into	-7.65699
▁wow	-7.66715
▁job	-7.67817
one	-7.67897
▁listen	-7.68231
▁win	-7.68544
▁hi	-7.68601
▁meet	-7.69604
▁finish	-7.6981
▁sound	-7.69871
also	-7.69924
▁lose	-7.70163
g	-7.70846
▁=	-7.7197
▁someone	-7.72109
▁p	-7.72791
▁happen	-7.72867
▁sun	-7.72995
▁baby	-7.73139
▁hot	-7.73401
▁ugh	-7.73741
▁kid	-7.73815
▁whil	-7.73884
▁actual	-7.73902
▁two	-7.74975
▁ha	-7.75034
ward	-7.75288
▁end	-7.75479
▁g	-7.76088
▁pic	-7.76459
▁world	-7.7662
▁<3	-7.77721
▁stop	-7.77744
▁party	-7.77937
▁put	-7.78205
▁hair	-7.78229
st	-7.78292
▁thos	-7.78338
▁every	-7.78867
▁until	-7.79265
round	-7.79979
ation	-7.80326
▁later	-7.80607
▁move	-7.81527
an	-7.8171
ry	-7.81883
▁birthday	-7.82063
▁glad	-7.82638
▁game	-7.82725
-	-7.82926
▁stuff	-7.83774
▁music	-7.83811
▁such	-7.84366
▁thanks	-7.84619
c	-7.85363
▁mothers	-7.85688
us	-7.85966
▁book	-7.86423
▁tho	-7.8652
▁poor	-7.87314
z	-7.87816
▁yesterday	-7.87891
▁un	-7.88274
▁cry	-7.88441
▁drink	-7.89046
/	-7.89636
▁weather	-7.8972
▁drive	-7.90239
▁since	-7.90334
▁excite	-7.90337
▁must	-7.90373
▁send	-7.90376
▁till	-7.91005
▁most	-7.91589
▁god	-7.92384
▁post	-7.92587
▁forget	-7.92955
▁few	-7.93463
▁place	-7.94794
▁seem	-7.95298
▁10	-7.95419
▁famil	-7.95589
▁summer	-7.96028
▁aww	-7.96125
▁myself	-7.9701
▁stay	-7.97308
▁month	-7.97354
▁cold	-7.97394
▁lunch	-7.98009
▁boy	-7.98613
▁6	-7.98666
▁de	-7.9899
ve	-7.99094
▁almost	-7.99356
▁close	-7.99484
▁far	-7.99872
ity	-7.99967
▁m	-8.00125
▁follower	-8.00179
f	-8.00473
$	-8.00688
▁coffee	-8.00709
▁free	-8.00824
▁plan	-8.01372
re	-8.01476
▁believe	-8.02064
▁sunday	-8.02238
▁luck	-8.03179
▁everything	-8.03638
▁hang	-8.04101
▁spend	-8.04164
▁picture	-8.0419
▁class	-8.04382
▁mine	-8.04714
▁money	-8.04876
▁total	-8.05076
or	-8.05694
▁both	-8.05871
▁their	-8.05917
w	-8.06122
▁welcome	-8.06304
▁fan	-8.06478
ness	-8.06875
▁super	-8.07731
▁sweet	-8.07741
▁funny	-8.07771
▁fall	-8.07819
▁o	-8.07981
▁stupid	-8.0852
▁cause	-8.08588
▁leas	-8.08789
▁mum	-8.09052
▁change	-8.09376
rough	-8.10203
▁clean	-8.10732
▁dream	-8.10748
▁room	-8.11285
x	-8.11362
▁cute	-8.11372
▁bored	-8.11418
▁food	-8.11544
▁fail	-8.11547
1	-8.11591
▁co	-8.11787
▁dinn	-8.11876
▁turn	-8.12003
▁video	-8.12255
it	-8.12262
▁exam	-8.12262
▁write	-8.12311
▁die	-8.12556
▁rock	-8.1301
▁beautiful	-8.13025
at	-8.13074
▁which	-8.13826
▁real	-8.14597
▁catch	-8.14623
▁dad	-8.14962
ice	-8.15583
▁ask	-8.16727
▁probabl	-8.16968
▁full	-8.1713
▁l	-8.17503
▁ill	-8.18059
▁stick	-8.18252
▁7	-8.18258
▁war	-8.18928
▁boo	-8.19075
▁outside	-8.19453
▁name	-8.19499
▁photo	-8.19884
▁enough	-8.20226
▁okay	-8.20324
▁dog	-8.20833
▁update	-8.21234
▁whole	-8.21244
▁hell	-8.21627
▁minute	-8.21908
▁8	-8.22019
▁part	-8.2223
▁kill	-8.22835
▁hit	-8.23096
ish	-8.24241
line	-8.25093
▁y	-8.25184
▁quit	-8.25365
▁idea	-8.25389
▁sooo	-8.26146
▁hahaha	-8.28025
▁holiday	-8.28896
▁awww	-8.29018
▁tv	-8.29218
▁headache	-8.29808
▁mommy	-8.2984
▁kinda	-8.29945
▁goodnight	-8.30037
▁office	-8.30078
able	-8.30179
ive	-8.31287
▁kind	-8.31491
▁bring	-8.31695
▁cat	-8.31779
▁hug	-8.31827
member	-8.32274
▁problem	-8.32576
▁aw	-8.33527
▁else	-8.33541
▁walk	-8.33646
▁ago	-8.34519
▁face	-8.34599
▁vot	-8.34737
▁rest	-8.34749
▁add	-8.34825
▁anymore	-8.35479
▁h	-8.35499
▁trip	-8.35813
phone	-8.35896
▁own	-8.36028
▁pay	-8.36742
▁reply	-8.37429
▁eye	-8.37497
▁dude	-8.38404
▁satur	-8.38409
com	-8.38546
▁al	-8.38958
man	-8.39044
▁hello	-8.39275
▁busy	-8.39733
mail	-8.40194
▁crazy	-8.40385
land	-8.40685
▁mind	-8.40699
▁final	-8.40906
te	-8.40914
▁high	-8.41398
▁wrong	-8.41413
▁brother	-8.42447
v	-8.4281
▁word	-8.42817
▁ticket	-8.43476
▁compute	-8.43483
▁hopefully	-8.43524
3	-8.44418
▁wonder	-8.44539
▁open	-8.44565
▁hand	-8.4461
▁heart	-8.44659
▁la	-8.44687
▁wear	-8.44718
en	-8.44962
▁suppose	-8.45384
▁dead	-8.45624
▁text	-8.45663
less	-8.45968
▁:	-8.46295
nd	-8.46331
▁internet	-8.46698
▁trek	-8.46822
time	-8.46867
▁sometime	-8.4693
▁learn	-8.47828
▁news	-8.47923
▁study	-8.48793
▁da	-8.49445
ll	-8.49708
▁worr	-8.49878
either	-8.49897
▁able	-8.49908
▁awake	-8.49971
▁blog	-8.50017
▁cut	-8.50778
▁short	-8.51053
▁test	-8.51621
▁person	-8.5207
▁serious	-8.52229
▁instead	-8.52232
ful	-8.52277
▁alone	-8.52288
▁slow	-8.52295
▁pass	-8.52317
▁card	-8.52717
8	-8.53031
▁bank	-8.53495
wn	-8.53577
4	-8.5361
▁air	-8.53965
um	-8.54258
▁facebook	-8.54548
▁half	-8.54571
▁cuz	-8.54587
2	-8.54756
▁btw	-8.54941
▁yea	-8.55356
▁lil	-8.55651
▁wonderful	-8.55748
▁link	-8.5577
▁ah	-8.56368
▁care	-8.5646
▁messag	-8.56923
▁fine	-8.57118
▁k	-8.5759
view	-8.5788
▁perfect	-8.58014
u	-8.58173
▁til	-8.58314
ter	-8.58675
▁hehe	-8.58798
▁past	-8.58807
▁true	-8.59177
and	-8.59216
▁concert	-8.5933
▁moment	-8.59449
▁shop	-8.59641
up	-8.59679
nt	-8.60364
▁pick	-8.6038
▁interest	-8.60578
▁park	-8.6066
▁set	-8.60736
▁soo	-8.61838
▁9	-8.61944
▁list	-8.62108
where	-8.62549
▁lucky	-8.62562
▁tour	-8.62638
▁ice	-8.62784
▁red	-8.62827
▁app	-8.62915
▁pack	-8.63069
de	-8.63126
▁lady	-8.63181
am	-8.63203
▁save	-8.6322
▁shower	-8.63472
▁min	-8.63663
▁pain	-8.63791
▁breakfast	-8.64376
▁foot	-8.6438
▁sign	-8.64417
ally	-8.64437
▁<	-8.64522
▁j	-8.65508
▁beach	-8.65539
▁epi	-8.6561
figur	-8.65711
▁top	-8.66007
▁favorite	-8.66978
▁lmao	-8.67061
▁mad	-8.67305
ah	-8.6741
▁12	-8.68074
▁hungry	-8.68155
▁soooo	-8.68196
▁bore	-8.68217
▁burn	-8.6827
▁under	-8.68303
▁fast	-8.68423
ate	-8.69004
▁account	-8.69662
▁shopping	-8.69663
▁bless	-8.69795
▁point	-8.698
▁youtube	-8.69837
▁mac	-8.70291
▁sing	-8.70661
▁v	-8.70692
▁laugh	-8.71049
▁join	-8.71057
▁june	-8.71083
▁train	-8.71195
▁water	-8.71467
▁coupl	-8.71564
▁reason	-8.71587
▁sigh	-8.72366
▁chocolate	-8.7242
▁near	-8.72437
▁smile	-8.72439
▁second	-8.72451
ic	-8.72787
▁-	-8.72896
▁pre	-8.73848
▁page	-8.74053
nite	-8.74136
▁cook	-8.74358
▁anyway	-8.74568
ister	-8.74625
▁course	-8.75352
▁fair	-8.75399
▁fly	-8.7596
ent	-8.76112
▁visit	-8.7673
▁fix	-8.76742
▁definite	-8.7677
▁nite	-8.76811
▁relax	-8.76819
come	-8.76996
!	-8.7708
ton	-8.77362
store	-8.77423
▁tea	-8.77836
▁ma	-8.78032
▁season	-8.78181
▁graduat	-8.78244
▁dis	-8.78505
▁side	-8.78561
ty	-8.78795
ist	-8.78882
▁flu	-8.79037
to	-8.79055
▁engl	-8.79184
▁nap	-8.79246
ng	-8.79607
▁finger	-8.79708
▁dear	-8.79752
▁dance	-8.79784
▁lap	-8.80366
▁easy	-8.81376
▁share	-8.81554
▁30	-8.8158
ch	-8.81633
▁cake	-8.81747
age	-8.81979
▁special	-8.82378
▁sore	-8.82671
▁woo	-8.82721
▁sunny	-8.82734
▁sell	-8.82761
▁load	-8.83008
▁agree	-8.84285
▁complete	-8.84299
sleep	-8.84453
tf	-8.84671
ne	-8.84751
▁due	-8.85107
▁lay	-8.85352
el	-8.85432
j	-8.85744
▁jealous	-8.85873
▁leg	-8.85898
▁afternoo	-8.85921
▁stand	-8.85977
▁cream	-8.86
▁ex	-8.86554
top	-8.86775
et	-8.87428
▁garden	-8.87499
▁story	-8.87555
▁dress	-8.87589
ball	-8.8773
▁bout	-8.87889
▁less	-8.88066
▁light	-8.88748
▁matt	-8.88851
▁ipod	-8.89142
▁yep	-8.89156
▁worth	-8.89206
▁twitt	-8.89283
▁chat	-8.89392
▁mess	-8.89434
ite	-8.89716
night	-8.89877
ck	-8.89934
▁lo	-8.89979
ever	-8.90122
▁am	-8.90193
▁weird	-8.90792
▁three	-8.908
▁answer	-8.90805
▁comment	-8.90812
▁ppl	-8.90814
▁togeth	-8.90826
▁warm	-8.91203
▁pl	-8.9126
way	-8.91611
▁realiz	-8.92416
▁download	-8.92517
▁present	-8.92523
▁boring	-8.92532
▁pray	-8.92642
▁chanc	-8.92736
▁window	-8.93426
▁uk	-8.93872
▁mile	-8.94015
▁xd	-8.94044
▁decide	-8.94214
▁teach	-8.94236
london	-8.94239
▁block	-8.94278
▁order	-8.94442
▁band	-8.94494
▁per	-8.94599
go	-8.94909
na	-8.94978
▁google	-8.95965
▁jonas	-8.96032
▁usual	-8.96035
▁mood	-8.96065
▁nope	-8.96103
▁cheese	-8.96111
▁numb	-8.9615
▁tru	-8.96446
light	-8.96698
long	-8.96701
▁bar	-8.96971
▁age	-8.97355
▁pizza	-8.97759
▁black	-8.97773
▁albu	-8.97796
▁official	-8.97798
▁cheer	-8.97909
ance	-8.97909
em	-8.97979
▁bg	-8.98197
▁20	-8.98245
dding	-8.98633
▁chill	-8.99003
▁babe	-8.99238
ney	-8.99406
▁bye	-8.99526
body	-8.99571
▁cancel	-8.99572
▁mama	-8.99583
▁stress	-8.99611
▁upload	-8.99652
▁blue	-8.99694
▁hold	-8.99786
▁ahh	-8.99883
special	-8.99993
▁bday	-9.00093
▁arm	-9.00284
▁mo	-9.0034
gue	-9.00624
▁lie	-9.00663
▁thro	-9.01075
▁apart	-9.01422
▁green	-9.0161
▁parent	-9.01736
▁bus	-9.01854
▁line	-9.02544
▁dang	-9.03196
▁11	-9.03215
▁cit	-9.03303
▁understand	-9.03308
▁gym	-9.03312
▁drop	-9.03352
▁congrat	-9.03391
▁different	-9.03391
▁white	-9.03475
▁mr	-9.03741
▁grow	-9.04338
son	-9.04491
ten	-9.04915
fb	-9.05108
▁gift	-9.05235
▁dm	-9.05276
▁everybody	-9.05291
▁www	-9.05446
▁cup	-9.05473
▁bro	-9.05494
is	-9.05789
ley	-9.06458
nce	-9.06655
film	-9.0666
▁dr	-9.06934
▁fight	-9.07182
▁project	-9.07207
▁except	-9.07208
▁camera	-9.07216
me	-9.07262
▁kick	-9.07354
▁fire	-9.08062
plus	-9.08261
0	-9.08468
▁rath	-9.08621
ant	-9.09006
▁count	-9.0901
▁depress	-9.09195
▁remind	-9.0921
▁shoe	-9.0926
▁each	-9.09261
▁upset	-9.09287
▁bike	-9.09305
▁fav	-9.09338
sod	-9.09556
▁compan	-9.09566
▁ball	-9.09589
▁pa	-9.09598
▁15	-9.09998
hind	-9.1006
▁unfortunatel	-9.10161
▁son	-9.10583
▁dur	-9.10585
▁hmm	-9.11027
▁sunshine	-9.11233
▁question	-9.11253
▁shoot	-9.11283
▁yum	-9.11295
▁horrible	-9.11318
▁cover	-9.11322
ner	-9.11403
▁100	-9.11436
▁shirt	-9.11508
ian	-9.11532
▁thought	-9.11737
▁low	-9.11974
sh	-9.12347
tic	-9.12751
▁fr	-9.12786
▁speak	-9.12983
dy	-9.12996
il	-9.13027
▁john	-9.13117
▁drunk	-9.13321
▁hun	-9.13324
▁huge	-9.13329
▁grand	-9.1347
▁throw	-9.13675
▁ouch	-9.13858
usin	-9.14031
ride	-9.14458
▁bag	-9.14619
▁dat	-9.14877
▁con	-9.14886
▁mid	-9.14936
▁beat	-9.15105
act	-9.1522
▁disappoint	-9.15448
▁absolute	-9.15537
▁shame	-9.15602
▁safe	-9.15634
▁screen	-9.15646
▁yummy	-9.15676
tin	-9.15802
▁jack	-9.16241
room	-9.16264
port	-9.16333
▁fam	-9.16411
▁wat	-9.16504
▁inter	-9.16544
▁st	-9.16744
▁def	-9.17103
▁club	-9.17206
tle	-9.173
date	-9.17369
▁apparent	-9.17619
▁business	-9.17619
▁exact	-9.17632
▁child	-9.17635
▁small	-9.17638
▁power	-9.17786
▁ne	-9.1782
▁apple	-9.1791
▁twit	-9.18026
▁thx	-9.18235
▁ms	-9.18239
ure	-9.1824
turn	-9.18316
▁na	-9.18464
▁cost	-9.18574
▁200	-9.18947
ach	-9.19108
▁ca	-9.1946
▁ju	-9.1947
▁yo	-9.19568
▁fact	-9.19636
▁middle	-9.19845
▁fantastic	-9.19849
▁quick	-9.19858
▁luv	-9.19882
▁appreciate	-9.19951
▁arriv	-9.20064
▁lame	-9.20221
▁team	-9.20235
▁ear	-9.20304
ia	-9.20468
▁ahhh	-9.20505
▁key	-9.20669
▁idk	-9.20712
▁ohh	-9.20791
▁yr	-9.21477
▁cos	-9.21515
▁pro	-9.21572
▁ps	-9.21603
▁wife	-9.21733
▁em	-9.21886
▁fa	-9.22028
▁sort	-9.22087
▁traffic	-9.22112
▁four	-9.22126
▁math	-9.22248
▁expect	-9.22262
▁record	-9.22263
ster	-9.22276
▁char	-9.22416
online	-9.22718
over	-9.22766
ra	-9.23408
▁prom	-9.23675
▁web	-9.23676
7	-9.23865
▁fe	-9.23952
▁deal	-9.24311
ous	-9.24418
▁cloth	-9.2446
▁cali	-9.24465
▁hubby	-9.24481
▁group	-9.24496
▁seat	-9.24544
▁paper	-9.24746
▁pool	-9.24814
▁inside	-9.24883
ary	-9.25034
▁prob	-9.25093
▁cross	-9.25282
ar	-9.25843
▁colleg	-9.25923
▁cu	-9.26499
la	-9.26589
▁version	-9.2682
▁daught	-9.26825
▁surprise	-9.26838
▁swine	-9.26854
▁lonely	-9.26872
▁normal	-9.26968
rd	-9.27104
▁gutte	-9.2712
▁box	-9.27224
▁piss	-9.27283
▁mail	-9.27837
though	-9.28176
▁young	-9.28235
nl	-9.28312
ront	-9.2844
▁pop	-9.2871
▁body	-9.2874
▁support	-9.29261
▁talent	-9.29262
▁sunburn	-9.29263
▁dvd	-9.29313
▁bill	-9.29314
▁base	-9.29487
▁milk	-9.29534
▁case	-9.29624
ard	-9.29682
▁touch	-9.29891
ence	-9.29912
▁mode	-9.2998
▁bath	-9.30156
▁ga	-9.3053
▁none	-9.31187
▁wash	-9.31273
ss	-9.3148
self	-9.31499
▁guitar	-9.31758
▁stomach	-9.31758
▁crash	-9.31766
▁chicken	-9.31777
▁radio	-9.3178
▁revision	-9.31805
▁edit	-9.31889
▁copy	-9.31931
▁doctor	-9.31941
▁ooh	-9.32022
▁log	-9.32039
▁bear	-9.32203
▁jay	-9.3228
ning	-9.32632
▁sam	-9.33077
▁moon	-9.33082
▁forever	-9.33131
5	-9.33748
▁hr	-9.33761
▁fish	-9.33908
▁tooth	-9.34115
▁bug	-9.34292
▁ti	-9.34303
▁fo	-9.34307
▁random	-9.34322
▁exciting	-9.34323
▁hospit	-9.34324
▁alright	-9.34327
▁cloud	-9.34331
▁mention	-9.34331
▁imagin	-9.34355
▁lazy	-9.34359
▁scar	-9.34364
▁kiss	-9.34383
▁pull	-9.34427
▁design	-9.34492
▁track	-9.34506
▁blow	-9.3453
▁sky	-9.34681
▁tan	-9.3495
▁travel	-9.36027
pm	-9.36105
▁san	-9.36158
▁mi	-9.36781
▁cont	-9.36836
▁huh	-9.36953
▁church	-9.36954
▁bbq	-9.36959
▁french	-9.36978
▁celebrate	-9.37076
▁feed	-9.37113
▁mobile	-9.37128
▁serv	-9.37258
▁non	-9.37307
▁cd	-9.37312
ur	-9.37335
▁shot	-9.37361
▁whatever	-9.3737
▁ru	-9.37408
dom	-9.37547
▁joe	-9.37596
▁joke	-9.37662
▁ff	-9.37817
▁art	-9.37946
▁jus	-9.37974
▁ve	-9.37991
q	-9.38026
▁mate	-9.38376
▁act	-9.39032
▁van	-9.39066
▁flow	-9.39073
ma	-9.39282
ap	-9.39295
▁via	-9.39299
▁14	-9.39601
▁puppy	-9.39658
▁quiet	-9.3969
▁voice	-9.39724
▁nick	-9.39775
▁homework	-9.39789
▁tear	-9.39868
▁sex	-9.39894
co	-9.4096
be	-9.41012
▁chillin	-9.41133
friend	-9.4126
▁pan	-9.41268
ru	-9.41325
ver	-9.41639
▁state	-9.41992
▁boyfrien	-9.4218
▁shall	-9.42453
▁dark	-9.42459
▁single	-9.42542
▁sub	-9.42579
▁issue	-9.42618
▁pie	-9.42653
ummy	-9.42728
ession	-9.42877
▁july	-9.43134
▁pc	-9.43296
ina	-9.4381
▁round	-9.44108
etc	-9.4433
▁sleepy	-9.4446
▁cr	-9.4451
▁uni	-9.44953
ba	-9.45029
tion	-9.45205
▁tuesday	-9.45291
▁releas	-9.45317
▁current	-9.45322
▁rip	-9.45331
book	-9.45348
▁tip	-9.45363
▁goodbye	-9.45367
▁davi	-9.45383
▁shout	-9.454
▁manage	-9.45514
▁fill	-9.45528
▁sale	-9.45759
▁coz	-9.45765
▁ny	-9.45805
▁myspace	-9.45863
▁justin	-9.45912
▁hahah	-9.45941
▁heat	-9.46085
id	-9.46439
own	-9.46503
▁ho	-9.4661
▁paint	-9.46635
▁land	-9.46721
▁comp	-9.47243
as	-9.47322
▁recommend	-9.47411
ta	-9.47637
▁wa	-9.47805
▁sis	-9.48008
▁gig	-9.48074
▁public	-9.48233
▁blackberry	-9.4824
▁thursday	-9.48242
▁proud	-9.48259
▁impress	-9.48261
ot	-9.48298
▁connect	-9.48302
▁vegas	-9.48326
▁memor	-9.4834
▁bird	-9.48351
ween	-9.48471
ery	-9.48681
▁law	-9.48888
my	-9.48999
▁alot	-9.49
you	-9.49097
▁jam	-9.49124
cation	-9.49165
tch	-9.49273
ine	-9.49369
ow	-9.49391
▁wall	-9.49451
▁fit	-9.49487
▁13	-9.49605
▁di	-9.49631
friday	-9.4984
▁writ	-9.49862
▁eff	-9.49894
▁bo	-9.50657
▁extra	-9.50856
▁wo	-9.50878
ze	-9.5102
▁mon	-9.51038
do	-9.51102
▁suggest	-9.51262
▁machine	-9.51263
▁starbuck	-9.51264
▁jump	-9.51272
ville	-9.51301
▁mc	-9.51337
▁street	-9.51343
▁strange	-9.51368
▁xoxo	-9.51435
▁roll	-9.51533
▁joy	-9.51607
▁addict	-9.51647
licious	-9.51745
▁code	-9.5175
▁event	-9.51839
▁webs	-9.51852
ge	-9.51986
▁tast	-9.52082
▁camp	-9.52114
▁promis	-9.52281
▁sp	-9.52378
▁sa	-9.52413
▁profi	-9.52446
eee	-9.52555
▁door	-9.52806
▁eh	-9.52844
head	-9.52978
▁self	-9.53098
▁bi	-9.53384
▁wit	-9.53485
▁shut	-9.53692
▁rid	-9.53893
▁tweep	-9.54301
▁twilight	-9.54398
▁road	-9.54417
▁mcfly	-9.54419
▁experie	-9.5442
▁inclu	-9.54438
▁hannah	-9.54461
▁indeed	-9.54468
▁double	-9.54473
▁peace	-9.54482
▁egg	-9.54493
▁lesson	-9.54493
▁el	-9.54501
▁shift	-9.54552
od	-9.54577
▁25	-9.54596
▁spa	-9.54688
▁fat	-9.55018
▁nobody	-9.55064
▁sm	-9.55449
rea	-9.55545
▁wind	-9.55684
▁dry	-9.55871
▁wast	-9.56123
oman	-9.56186
▁race	-9.5635
▁ring	-9.56468
ord	-9.57074
▁gi	-9.57416
▁direct	-9.57454
▁drag	-9.57566
▁deserve	-9.57613
▁wolverine	-9.57613
▁quote	-9.57614
▁taylor	-9.57615
▁recover	-9.57617
▁color	-9.5762
▁death	-9.57622
▁build	-9.5764
▁mix	-9.57678
▁social	-9.57683
▁18	-9.57697
▁draw	-9.577
▁proper	-9.57714
▁peep	-9.57718
▁brain	-9.5772
nyc	-9.57727
▁american	-9.57952
well	-9.57957
congratulation	-9.58001
▁begin	-9.58122
▁vid	-9.58148
▁bloody	-9.58246
the	-9.58473
▁sc	-9.58495
▁scare	-9.58499
ship	-9.59486
▁feelin	-9.595
oo	-9.59833
cookie	-9.59878
▁pink	-9.60246
▁yup	-9.60355
mo	-9.6038
rself	-9.60677
▁pur	-9.60738
▁exhaust	-9.60947
▁left	-9.6095
▁south	-9.6095
▁trail	-9.6095
▁bottle	-9.60954
▁fab	-9.61009
mate	-9.61037
▁histor	-9.61044
▁host	-9.61053
▁awful	-9.61096
▁fever	-9.61099
▁price	-9.61102
▁charge	-9.61462
▁glass	-9.61482
▁ra	-9.62016
▁fi	-9.62058
▁sim	-9.62086
▁miley	-9.62251
kin	-9.62269
ester	-9.62471
▁hill	-9.6256
crew	-9.62897
*	-9.62955
▁plane	-9.63013
▁40	-9.63239
▁freak	-9.63342
6	-9.63369
▁jon	-9.6362
▁blood	-9.63724
▁emp	-9.63938
▁vac	-9.64064
▁16	-9.6407
▁sh	-9.64144
ult	-9.64221
▁hilarious	-9.64395
▁wednes	-9.64395
▁expens	-9.64395
▁favourite	-9.64396
▁smell	-9.64397
▁consider	-9.64397
▁perform	-9.64398
▁degre	-9.64399
▁neck	-9.64418
▁spell	-9.64432
▁scream	-9.64437
chinese	-9.64498
▁match	-9.64536
▁dunno	-9.64574
▁fresh	-9.64582
▁vi	-9.64598
ction	-9.6463
▁space	-9.64643
▁sum	-9.64646
▁nail	-9.64704
▁spot	-9.64711
▁sense	-9.64778
▁itune	-9.648
▁tha	-9.64872
▁topic	-9.64941
rgeo	-9.65253
pa	-9.65368
▁cap	-9.65421
▁budd	-9.656
000	-9.65614
ode	-9.65748
▁hoo	-9.65761
▁mu	-9.65768
spect	-9.65854
▁ton	-9.6594
by	-9.66036
gg	-9.66039
▁80	-9.66139
▁ble	-9.66277
▁anyways	-9.66418
back	-9.66572
▁bare	-9.66666
some	-9.66672
▁whe	-9.66724
▁ta	-9.66897
▁north	-9.67009
ham	-9.67086
rs	-9.67388
▁shine	-9.67805
▁afraid	-9.67966
▁sweat	-9.67967
▁entire	-9.67967
▁blast	-9.67977
▁chica	-9.67983
▁darn	-9.67991
▁knee	-9.68001
▁24	-9.68027
▁terribl	-9.68035
▁treat	-9.68059
student	-9.68071
▁bummer	-9.6812
▁futur	-9.68161
▁brand	-9.68227
▁mark	-9.6846
▁singe	-9.68464
▁q	-9.68467
nut	-9.68518
style	-9.68531
▁bon	-9.68608
▁practic	-9.68662
how	-9.68917
▁te	-9.69209
ol	-9.69587
▁anim	-9.69607
no	-9.69613
▁pet	-9.69924
▁dia	-9.69983
▁yours	-9.70054
work	-9.70058
▁twi	-9.70142
tempt	-9.7015
▁z	-9.70195
rious	-9.70336
ka	-9.7035
▁ke	-9.70801
of	-9.71035
▁bum	-9.71208
▁got	-9.71408
rush	-9.71441
bo	-9.71455
▁access	-9.71476
▁um	-9.71607
▁thanx	-9.7166
▁australia	-9.7167
▁ignore	-9.7167
▁assign	-9.71671
quiz	-9.71671
▁clear	-9.71671
▁honest	-9.71675
▁priva	-9.71678
▁swear	-9.71699
▁disney	-9.71702
▁honey	-9.71711
▁step	-9.71768
▁earth	-9.71803
▁hmmm	-9.71877
▁rule	-9.71968
▁bright	-9.7197
▁lu	-9.72099
▁outta	-9.72163
▁fri	-9.72364
▁awe	-9.72575
▁wk	-9.72579
▁allow	-9.7264
ther	-9.72683
▁nah	-9.72789
est	-9.72845
ro	-9.72909
▁dadd	-9.731
▁momma	-9.73243
▁0	-9.73248
▁tw	-9.733
cake	-9.73537
invite	-9.73649
▁plant	-9.73716
uck	-9.73726
▁en	-9.73785
▁freakin	-9.73795
more	-9.73826
tt	-9.73855
ade	-9.73914
lo	-9.73974
▁surg	-9.74153
▁hero	-9.74199
▁sooooo	-9.7422
▁wi	-9.74801
▁ro	-9.7517
▁swim	-9.75286
▁mmm	-9.75456
▁major	-9.75516
▁britain	-9.75517
▁trouble	-9.75518
▁silly	-9.75522
om	-9.75546
▁steal	-9.75552
▁delay	-9.75553
▁deep	-9.75553
▁husb	-9.75581
▁info	-9.75819
▁print	-9.75854
▁channe	-9.75896
▁delete	-9.75932
ied	-9.75983
▁mag	-9.76011
▁damm	-9.76097
▁cell	-9.76314
▁li	-9.76345
love	-9.76361
▁realis	-9.76384
▁simpl	-9.76427
▁cha	-9.76486
▁better	-9.76489
con	-9.7649
▁search	-9.76523
▁pant	-9.76599
ware	-9.76869
▁50	-9.76879
▁dent	-9.77197
▁bc	-9.7737
▁ph	-9.7755
get	-9.77577
▁butter	-9.77582
nn	-9.77608
▁mar	-9.77697
cross	-9.7808
wood	-9.78089
▁thir	-9.78149
ak	-9.78434
▁sy	-9.78473
mp	-9.78875
cast	-9.79188
▁certain	-9.79516
▁hahahaha	-9.7952
▁chick	-9.7952
▁cheap	-9.79524
▁ugly	-9.79527
▁fml	-9.79529
▁ten	-9.7953
▁boss	-9.79538
▁allerg	-9.79584
▁sugar	-9.79619
▁folk	-9.79666
▁storm	-9.79669
▁germany	-9.79697
ber	-9.79729
▁flat	-9.79784
▁annoying	-9.7981
▁grey	-9.79833
ni	-9.7984
▁six	-9.79893
ael	-9.79903
▁sweetie	-9.79946
▁slight	-9.80006
▁ja	-9.80032
forni	-9.80043
▁gold	-9.80112
▁mich	-9.80144
▁awwww	-9.80236
ress	-9.80274
▁view	-9.80306
down	-9.80311
olog	-9.8033
▁bb	-9.80406
▁smoke	-9.8055
ire	-9.80626
net	-9.80819
▁aff	-9.80822
▁holy	-9.80886
▁creat	-9.80918
▁17	-9.80985
▁choo	-9.81598
▁hav	-9.81752
star	-9.81764
▁ache	-9.81849
tack	-9.82248
▁collect	-9.82566
▁su	-9.83326
ial	-9.8333
▁heh	-9.83342
▁main	-9.83462
▁ohhh	-9.83615
▁deliver	-9.83686
▁local	-9.83687
▁horse	-9.83705
▁flash	-9.8371
▁basic	-9.83721
coast	-9.83736
▁push	-9.83745
▁continu	-9.83778
▁boot	-9.83788
▁report	-9.83893
article	-9.83895
▁leno	-9.83906
▁angel	-9.83924
▁breath	-9.8399
▁schedule	-9.84088
▁skin	-9.84091
▁greg	-9.84124
un	-9.84236
▁bang	-9.84294
▁possible	-9.84347
▁den	-9.84348
▁libra	-9.84361
09	-9.8449
▁rob	-9.84639
▁sara	-9.84728
▁hook	-9.84833
ul	-9.85014
▁blah	-9.8505
▁21	-9.85077
type	-9.85459
▁kitty	-9.85643
▁east	-9.85926
▁atl	-9.85956
lla	-9.86067
▁scen	-9.86107
ize	-9.86242
sa	-9.86523
ugh	-9.86529
▁bf	-9.86534
▁pill	-9.86599
girl	-9.86612
deck	-9.86658
▁beside	-9.87051
bit	-9.87209
▁availab	-9.87311
▁america	-9.87576
▁crack	-9.87657
▁annoy	-9.87714
▁chap	-9.8795
▁rich	-9.87952
cut	-9.87973
▁august	-9.88031
▁important	-9.88032
▁strong	-9.88034
▁cupcake	-9.88044
▁market	-9.88061
▁system	-9.88067
▁sea	-9.88142
▁gear	-9.88156
ushi	-9.8819
▁limit	-9.88198
▁lock	-9.88198
ston	-9.88296
arm	-9.883
▁demi	-9.88318
▁row	-9.88353
▁canada	-9.88394
▁sport	-9.88474
▁dish	-9.88595
io	-9.88611
eeee	-9.88645
▁wild	-9.88659
si	-9.88705
que	-9.89193
lin	-9.89197
▁lake	-9.89272
▁tom	-9.89314
▁board	-9.89387
▁bur	-9.89403
▁soft	-9.89419
▁bake	-9.89499
▁hat	-9.89524
▁king	-9.89715
▁wave	-9.89729
▁sl	-9.89742
nny	-9.89772
bt	-9.89993
▁gosh	-9.90272
ough	-9.90361
▁statu	-9.90465
mh	-9.91049
lake	-9.9108
▁wh	-9.91104
▁nut	-9.91217
▁chi	-9.91266
ble	-9.91266
ix	-9.91338
▁pen	-9.9144
min	-9.91489
9	-9.9162
▁magic	-9.91978
▁kno	-9.92132
fake	-9.92184
per	-9.92239
▁90	-9.92289
▁lead	-9.92407
tail	-9.92455
▁bumme	-9.92489
ut	-9.92522
▁straight	-9.9254
▁energ	-9.9257
▁constant	-9.92576
▁kitchen	-9.92576
▁doubt	-9.92577
▁speed	-9.92578
▁idiot	-9.9258
▁neighbor	-9.92581
▁heaven	-9.92581
▁grandma	-9.92596
▁squa	-9.926
▁click	-9.92603
▁ship	-9.92621
result	-9.92652
▁po	-9.92655
▁bowl	-9.92683
▁epic	-9.92707
▁dave	-9.92763
▁distract	-9.92819
▁ow	-9.92828
▁kate	-9.9301
▁loud	-9.9304
tage	-9.93076
▁wide	-9.93105
ir	-9.9313
▁table	-9.93198
▁tree	-9.93278
gross	-9.93338
▁personal	-9.9336
ga	-9.93501
▁oo	-9.93657
▁ch	-9.93658
▁xo	-9.9388
nch	-9.93925
▁uh	-9.94305
▁dan	-9.94715
▁22	-9.94761
▁phil	-9.9491
▁pol	-9.94979
▁soup	-9.95035
▁doc	-9.95206
▁toast	-9.95254
▁cli	-9.95659
▁dev	-9.95699
▁cho	-9.95701
board	-9.95911
<3	-9.95999
▁west	-9.96006
▁ko	-9.9623
▁hunt	-9.96358
▁going	-9.96436
▁spring	-9.96461
▁hol	-9.96471
▁grade	-9.96651
▁gr	-9.96914
▁revis	-9.96957
haps	-9.97198
respond	-9.97333
▁involve	-9.97338
▁accept	-9.97338
▁obvious	-9.97338
▁request	-9.97338
▁ocean	-9.97338
▁situation	-9.97339
▁fabulous	-9.97339
▁studio	-9.9734
twitpic	-9.9734
▁entertain	-9.9734
▁senior	-9.97341
▁network	-9.97344
▁drama	-9.97344
▁excell	-9.97346
▁ryan	-9.97346
▁advi	-9.97347
▁desk	-9.97351
▁trend	-9.97353
▁pub	-9.97364
▁mexic	-9.97365
▁lack	-9.97417
▁sux	-9.97432
▁mall	-9.97436
natural	-9.97448
▁micro	-9.97451
▁port	-9.97467
▁serie	-9.97593
▁marath	-9.97633
▁laker	-9.97653
▁mouth	-9.97661
▁crav	-9.97741
dnt	-9.97752
▁flo	-9.9779
▁hm	-9.98014
▁tune	-9.98041
▁field	-9.98092
acter	-9.98092
▁che	-9.98098
ke	-9.98137
00	-9.98168
▁holly	-9.98227
cy	-9.98236
ddle	-9.98285
hr	-9.98444
▁cav	-9.985
ily	-9.98575
ya	-9.98789
end	-9.98802
▁stre	-9.9884
tv	-9.98855
▁accident	-9.99085
ember	-9.99135
▁mrs	-9.99405
▁diet	-9.99556
▁sin	-9.99735
▁19	-9.99921
illa	-9.99963
▁hd	-10.0044
▁auto	-10.0068
dd	-10.0074
berry	-10.0076
station	-10.0077
wise	-10.009
▁aha	-10.0099
▁om	-10.0102
▁argh	-10.012
ncy	-10.0127
boy	-10.0156
▁nd	-10.017
▁program	-10.0178
oke	-10.0178
▁ahhhh	-10.0208
▁philippine	-10.0234
▁credit	-10.0234
▁nervous	-10.0234
▁photograph	-10.0234
▁attend	-10.0234
▁admit	-10.0234
▁smooth	-10.0234
▁incredibl	-10.0235
▁laund	-10.0235
▁pig	-10.0237
▁bay	-10.0241
▁nerd	-10.0243
atre	-10.0245
▁stock	-10.0246
▁winter	-10.0255
▁gah	-10.0255
▁dj	-10.0255
▁hide	-10.0256
▁bat	-10.0257
▁father	-10.0264
▁essa	-10.0279
▁file	-10.028
ig	-10.0283
tention	-10.0284
▁tough	-10.0289
▁press	-10.0297
raise	-10.0304
moro	-10.0306
▁jk	-10.0308
hh	-10.0315
▁happi	-10.0315
▁tis	-10.0316
▁bio	-10.0326
▁har	-10.0327
▁dc	-10.0329
▁chip	-10.0347
▁mary	-10.0357
▁convers	-10.0373
but	-10.038
▁para	-10.0385
▁onto	-10.0387
▁alex	-10.0397
▁offer	-10.0414
▁deck	-10.0419
spite	-10.0423
▁mini	-10.0432
cc	-10.0433
▁button	-10.0437
▁tr	-10.0454
hhh	-10.0481
▁yu	-10.0485
▁watchin	-10.0499
▁medi	-10.0501
▁lab	-10.0519
▁str	-10.0522
▁damn	-10.0537
▁servi	-10.0565
▁marri	-10.0566
▁com	-10.057
▁don	-10.0592
▁pm	-10.0597
▁pi	-10.0615
=	-10.0618
word	-10.0632
▁spam	-10.0654
▁shin	-10.0663
▁marr	-10.0673
▁freeze	-10.0685
gif	-10.0703
▁dig	-10.0717
ri	-10.0739
▁migraine	-10.076
▁montana	-10.076
▁scratch	-10.076
▁york	-10.0761
▁timber	-10.0761
▁appear	-10.0761
▁flick	-10.0762
▁steve	-10.0765
stie	-10.0769
▁strawberr	-10.0769
▁enter	-10.0771
▁country	-10.0772
▁score	-10.0772
▁excu	-10.0777
nic	-10.078
▁productive	-10.0782
▁batter	-10.0783
▁net	-10.0784
▁bff	-10.0786
ound	-10.0791
▁burg	-10.0795
ass	-10.0796
▁sn	-10.0816
ric	-10.0817
▁pea	-10.0817
▁size	-10.0817
▁cor	-10.082
▁stu	-10.0822
▁healthy	-10.0826
▁tag	-10.083
▁wood	-10.0831
▁nose	-10.0861
▁le	-10.0867
appy	-10.0879
lame	-10.0882
▁floo	-10.089
▁dye	-10.0904
▁ri	-10.091
▁bl	-10.0911
sss	-10.0915
▁que	-10.0939
▁centr	-10.094
▁nowhere	-10.0954
▁sat	-10.0964
▁rat	-10.0967
ouch	-10.0977
▁ty	-10.0984
ific	-10.0992
▁cy	-10.0995
for	-10.1023
enty	-10.1029
▁uncl	-10.1034
▁chris	-10.1045
side	-10.1066
▁invit	-10.1081
da	-10.1126
▁poo	-10.1129
search	-10.1172
▁pin	-10.1174
ang	-10.1189
▁bu	-10.1195
like	-10.1196
off	-10.1198
▁sala	-10.1203
▁sta	-10.1211
li	-10.1219
len	-10.1263
▁par	-10.1288
lord	-10.1291
▁doll	-10.1307
▁thunder	-10.1316
▁tattoo	-10.1316
▁convince	-10.1316
▁discuss	-10.1316
▁pleasure	-10.1316
▁mistake	-10.1316
▁prefer	-10.1316
▁gloom	-10.1316
▁smart	-10.1317
▁desktop	-10.1317
▁roast	-10.1319
bottom	-10.1319
▁replace	-10.132
▁bunny	-10.1321
▁loss	-10.1323
▁upgrade	-10.1323
▁painful	-10.1325
▁geek	-10.1325
▁fancy	-10.1325
▁iron	-10.1334
▁neither	-10.1353
▁golf	-10.1362
▁hugh	-10.1368
pe	-10.1369
▁yard	-10.1373
im	-10.1376
▁bra	-10.138
large	-10.1383
▁oops	-10.1384
nna	-10.1386
▁playing	-10.1391
aaa	-10.1396
▁mis	-10.1396
▁shake	-10.1397
10	-10.1407
▁cro	-10.1411
▁thankful	-10.1413
ong	-10.1415
▁challenge	-10.1423
20	-10.1429
▁demo	-10.1432
art	-10.1446
ache	-10.1466
▁se	-10.1473
evil	-10.1475
rite	-10.1488
fit	-10.1489
▁du	-10.1498
▁imma	-10.151
▁tweeter	-10.1517
shop	-10.1521
▁refus	-10.153
hile	-10.1537
▁choi	-10.1544
ature	-10.1555
▁juic	-10.1559
ore	-10.1582
▁workin	-10.1602
▁ze	-10.1618
▁ye	-10.1628
▁pit	-10.163
ort	-10.1681
▁hall	-10.1687
▁tool	-10.1702
▁temp	-10.1705
▁lookin	-10.1724
gle	-10.1727
▁pe	-10.1747
mond	-10.1747
ese	-10.176
house	-10.1762
ky	-10.1787
▁grab	-10.1796
▁oooh	-10.1803
ada	-10.1826
ph	-10.1833
▁hop	-10.185
fm	-10.1858
▁cub	-10.1867
▁grr	-10.1873
▁tire	-10.1884
▁term	-10.189
▁possib	-10.1899
▁difficult	-10.1904
▁sandwich	-10.1904
▁regret	-10.1904
▁secret	-10.1904
▁surviv	-10.1904
▁suffer	-10.1904
▁alcohol	-10.1904
▁texa	-10.1904
▁correct	-10.1904
▁massage	-10.1905
▁brazil	-10.1905
▁keyboard	-10.1905
▁pour	-10.1906
▁hurry	-10.1907
▁loose	-10.191
▁retweet	-10.191
▁taco	-10.191
▁skill	-10.191
▁mush	-10.1912
rice	-10.1919
ca	-10.1919
▁wii	-10.192
▁queen	-10.192
▁melt	-10.1921
▁million	-10.1922
▁hotel	-10.1922
▁insane	-10.1923
▁35	-10.1924
os	-10.193
▁comfort	-10.1936
▁stack	-10.1937
▁develop	-10.1937
▁cnt	-10.1948
▁letter	-10.1955
▁guilt	-10.1957
▁jo	-10.196
▁center	-10.1961
▁pal	-10.1965
▁ew	-10.1972
▁tease	-10.1974
▁atm	-10.1975
▁scared	-10.1989
▁soul	-10.1992
ft	-10.2005
▁positiv	-10.2016
▁grad	-10.2032
▁60	-10.2035
gie	-10.2049
▁dub	-10.2068
nnie	-10.2071
ko	-10.2073
▁jb	-10.2101
▁broken	-10.2108
▁suit	-10.2109
▁fu	-10.2115
sp	-10.2118
▁aim	-10.2124
▁backgroun	-10.2125
▁core	-10.2149
oon	-10.2149
ory	-10.2166
▁bust	-10.2173
aa	-10.2176
▁waitin	-10.2199
hi	-10.2234
ac	-10.2238
ad	-10.2288
ify	-10.2291
▁pr	-10.2296
▁ka	-10.2297
▁si	-10.2311
▁brown	-10.2324
▁esp	-10.2331
▁nov	-10.2339
ple	-10.234
nx	-10.2346
▁bah	-10.2347
ington	-10.2357
play	-10.2363
what	-10.2387
list	-10.2405
▁wu	-10.2408
▁del	-10.2414
male	-10.2419
▁control	-10.2443
▁ace	-10.2451
▁ba	-10.2454
▁bob	-10.2458
▁mike	-10.246
ellow	-10.2461
▁grrr	-10.248
▁sk	-10.2487
▁creep	-10.2488
▁45	-10.2501
ay	-10.2526
▁mornin	-10.2527
▁christmas	-10.2529
ab	-10.2529
▁announce	-10.2529
▁sudden	-10.2529
▁orange	-10.2529
▁decision	-10.2529
▁climb	-10.2529
▁mountain	-10.2529
▁ashley	-10.2529
▁frank	-10.2531
▁dirt	-10.2531
▁comic	-10.2531
▁tech	-10.2531
▁bacon	-10.2532
▁cruise	-10.2534
▁tiny	-10.2534
▁effect	-10.2534
▁court	-10.2535
▁josh	-10.2536
▁trick	-10.254
▁avoid	-10.2545
▁confused	-10.2555
▁laur	-10.2556
▁cancer	-10.2557
▁msg	-10.2558
▁reality	-10.2558
▁handle	-10.2559
stair	-10.2562
east	-10.2563
▁poop	-10.2563
▁clue	-10.2564
▁weight	-10.2569
▁gro	-10.2569
▁paul	-10.2579
▁woop	-10.2582
▁spin	-10.2588
ile	-10.2589
▁greet	-10.259
▁wire	-10.2592
mon	-10.2599
▁beyon	-10.2599
rian	-10.2618
die	-10.2628
▁tu	-10.2631
▁hack	-10.2632
▁sir	-10.2643
▁gunn	-10.2645
▁ground	-10.2656
mit	-10.266
▁sha	-10.2664
▁booo	-10.2671
▁ot	-10.2684
ue	-10.2688
▁talkin	-10.2692
30	-10.2711
fa	-10.2712
▁recei	-10.2744
▁tri	-10.2746
▁depend	-10.2761
▁meal	-10.2773
ki	-10.2774
1/2	-10.2783
eek	-10.2785
ona	-10.2789
ator	-10.2796
stic	-10.2806
rus	-10.2808
▁differen	-10.2812
ake	-10.2818
▁ci	-10.2833
▁twin	-10.2833
yyy	-10.2845
ical	-10.2854
mm	-10.2862
zzy	-10.2883
▁rub	-10.2889
▁gas	-10.2922
▁kay	-10.2922
oven	-10.2941
all	-10.2947
▁wif	-10.2954
clip	-10.2959
▁sci	-10.2966
▁farm	-10.2975
▁eric	-10.2983
ater	-10.2994
morrow	-10.303
▁broke	-10.3032
▁hu	-10.3038
▁26	-10.3044
▁bk	-10.3047
rise	-10.307
▁wrap	-10.3074
▁glo	-10.3125
▁snap	-10.3129
▁health	-10.3139
▁ki	-10.3147
roll	-10.3156
▁va	-10.3162
ew	-10.3171
▁bull	-10.318
ting	-10.3186
▁nk	-10.3188
▁launch	-10.3196
▁respons	-10.3196
▁speech	-10.3196
▁surprising	-10.3196
▁custom	-10.3196
▁mcdonald	-10.3196
▁language	-10.3196
▁fruit	-10.3196
▁general	-10.3196
▁browse	-10.3196
▁drug	-10.3196
▁successful	-10.3197
▁spider	-10.3198
▁knock	-10.3198
▁competition	-10.3198
▁recent	-10.3199
▁artist	-10.32
▁james	-10.3201
▁conference	-10.3201
▁popular	-10.3201
▁master	-10.3202
level	-10.3203
▁football	-10.3203
▁odd	-10.3205
▁panic	-10.3206
▁jimmy	-10.3208
▁tmr	-10.3208
▁florid	-10.3209
▁gud	-10.321
▁brad	-10.3214
▁pj	-10.3216
▁mow	-10.3216
▁thai	-10.3217
▁:-	-10.3222
▁duck	-10.3223
▁trust	-10.3224
▁miserabl	-10.3224
▁horr	-10.3225
▁original	-10.3226
▁trade	-10.323
▁nooo	-10.3243
▁aunt	-10.3245
▁wis	-10.3245
ooo	-10.3247
▁dumb	-10.3249
▁gray	-10.3255
▁bak	-10.326
lly	-10.3273
ung	-10.3285
fox	-10.3301
ption	-10.3305
▁bugg	-10.3315
mi	-10.3322
▁nast	-10.3328
▁christi	-10.3333
▁cart	-10.334
▁pair	-10.334
▁br	-10.3349
▁dut	-10.3355
abilit	-10.3356
▁gut	-10.3371
▁url	-10.3384
▁sand	-10.3403
▁cur	-10.3405
any	-10.3408
▁chest	-10.3413
▁wing	-10.3455
▁sf	-10.3458
py	-10.3458
▁octo	-10.3461
lol	-10.3463
▁rush	-10.3473
zen	-10.3482
ulu	-10.3503
▁windows	-10.3514
▁dam	-10.3515
▁ab	-10.3522
▁peri	-10.3522
▁rent	-10.354
▁jess	-10.3545
▁din	-10.3556
▁deb	-10.3568
chi	-10.3575
▁roo	-10.3575
▁ador	-10.3578
▁mor	-10.358
▁fur	-10.3588
▁ac	-10.3597
▁yah	-10.3603
error	-10.362
▁tur	-10.3625
ari	-10.3647
▁tar	-10.3659
▁member	-10.3661
▁bru	-10.3671
cycle	-10.3681
key	-10.3692
ado	-10.3711
▁alas	-10.3713
▁ep	-10.3718
bu	-10.372
60	-10.3725
▁conversat	-10.3749
reach	-10.3763
soft	-10.3766
▁fla	-10.3772
▁gb	-10.3785
▁ooo	-10.3788
everal	-10.379
▁cru	-10.3816
▁vs	-10.3824
rrr	-10.384
▁mission	-10.3847
ha	-10.3859
▁jane	-10.3867
mer	-10.387
▁hay	-10.39
▁buff	-10.3903
▁ea	-10.3905
▁zombie	-10.391
▁thomas	-10.391
▁rubbish	-10.391
▁repeat	-10.391
▁japan	-10.391
▁spread	-10.3911
▁shock	-10.3911
▁discover	-10.3911
▁blank	-10.3911
▁soooooo	-10.3911
▁bunch	-10.3911
▁sync	-10.3911
▁pump	-10.3912
▁miami	-10.3912
▁skype	-10.3913
▁makin	-10.3913
▁content	-10.3914
▁advance	-10.3915
▁xbox	-10.3915
▁ghost	-10.3916
▁fashion	-10.3916
▁recip	-10.3916
▁gossip	-10.3916
▁cramp	-10.3917
▁exist	-10.3917
▁relate	-10.3918
▁liter	-10.3918
▁battle	-10.3919
sap	-10.3921
▁role	-10.3921
▁festiv	-10.3922
▁mmmm	-10.3922
▁pix	-10.3922
▁option	-10.3927
real	-10.3927
▁jeff	-10.3928
▁daily	-10.393
ez	-10.3941
▁1000	-10.3942
▁plug	-10.3943
pair	-10.3946
read	-10.396
▁brook	-10.3966
ture	-10.3966
▁ahaha	-10.3968
▁bump	-10.3968
▁kelly	-10.3972
ai	-10.3975
▁wal	-10.3983
▁carry	-10.3988
ddy	-10.3993
▁yeh	-10.3996
▁victor	-10.3997
▁jour	-10.4014
stone	-10.4019
▁alive	-10.403
ight	-10.4037
aga	-10.4046
paris	-10.4054
ho	-10.4055
50	-10.4068
hole	-10.4083
we	-10.409
▁nurs	-10.4109
ff	-10.4114
▁player	-10.4117
▁gd	-10.4119
▁ummm	-10.4123
▁ray	-10.4133
not	-10.4141
katie	-10.4157
▁dun	-10.416
▁loser	-10.4167
rate	-10.4171
▁usa	-10.4172
lie	-10.4183
che	-10.4199
▁hom	-10.4211
▁cam	-10.4225
▁wise	-10.4252
▁gun	-10.4255
mage	-10.4267
▁creativ	-10.4268
▁drum	-10.4286
▁anna	-10.4288
oohoo	-10.4299
▁mont	-10.4313
▁mm	-10.4314
▁op	-10.4346
▁unfortunate	-10.4347
▁lmfao	-10.4351
olio	-10.4359
▁nv	-10.4376
▁goodmorn	-10.4393
don	-10.4405
▁cl	-10.4427
▁classic	-10.4434
nish	-10.4457
▁heyy	-10.4464
▁chem	-10.4476
▁ver	-10.4477
▁colle	-10.4479
▁warn	-10.4486
▁moo	-10.4497
load	-10.4505
gain	-10.4529
▁kar	-10.4542
▁audit	-10.4552
▁olive	-10.4568
main	-10.4568
mber	-10.4573
fire	-10.4575
▁noooo	-10.4587
nge	-10.4589
ible	-10.459
▁ni	-10.4602
away	-10.4612
lot	-10.4613
▁instal	-10.4613
here	-10.4614
▁cash	-10.4615
▁rofl	-10.4616
▁hon	-10.4638
▁hah	-10.4644
▁sittin	-10.4647
▁cab	-10.4649
▁nooooo	-10.4652
nation	-10.4657
▁sem	-10.466
▁indian	-10.4676
restaurant	-10.4679
▁cinema	-10.4679
▁banana	-10.4679
▁noodle	-10.4679
▁paranoi	-10.4679
▁accord	-10.4679
▁provide	-10.4679
▁swol	-10.4679
▁budget	-10.468
▁regard	-10.468
▁shud	-10.468
regular	-10.468
▁fyi	-10.468
▁river	-10.4681
▁crawl	-10.4681
▁contest	-10.4681
▁decent	-10.4681
▁setting	-10.4682
▁scru	-10.4682
▁stink	-10.4683
▁forgive	-10.4684
▁human	-10.4684
potato	-10.4685
▁mtv	-10.4685
▁appli	-10.4686
▁france	-10.4687
subject	-10.4687
▁adam	-10.4687
▁grill	-10.4688
▁dann	-10.4689
▁fear	-10.4689
appoint	-10.469
▁thumb	-10.4692
▁plz	-10.4693
otb	-10.4693
▁cafe	-10.4694
▁buzz	-10.4698
▁boil	-10.4698
▁steak	-10.4698
▁sept	-10.4706
▁switch	-10.471
▁user	-10.4714
▁scott	-10.472
▁dust	-10.4727
cha	-10.473
▁gf	-10.4732
▁stream	-10.4748
▁2009	-10.4749
▁install	-10.4754
▁inspire	-10.4757
ler	-10.4765
▁heck	-10.4772
▁downt	-10.478
▁circu	-10.4785
▁poke	-10.4785
lation	-10.4792
▁nicol	-10.4799
▁compar	-10.4803
▁dh	-10.4804
▁twist	-10.4812
▁sober	-10.4824
ep	-10.4828
▁rab	-10.483
▁sock	-10.4833
▁isn	-10.4837
▁dec	-10.4844
ngry	-10.4845
plain	-10.4845
▁packag	-10.4856
▁quar	-10.4858
▁/	-10.4869
low	-10.487
▁washing	-10.487
▁purp	-10.4874
▁christ	-10.4884
▁palm	-10.4905
▁tim	-10.4916
▁expla	-10.4929
▁wah	-10.4949
▁spamme	-10.495
pound	-10.4968
ave	-10.4969
di	-10.4977
ink	-10.4977
▁bt	-10.4981
lve	-10.4997
▁pat	-10.5004
▁sau	-10.5006
▁plat	-10.5009
▁swa	-10.5016
▁photosho	-10.5018
▁driv	-10.5027
▁prove	-10.5032
▁pos	-10.5036
anna	-10.5047
▁hoe	-10.5049
▁vist	-10.5053
▁recogni	-10.5061
las	-10.5076
▁ec	-10.508
▁ang	-10.5082
set	-10.5095
ase	-10.5102
lisa	-10.5113
so	-10.5116
▁beta	-10.5133
▁obsess	-10.5137
rude	-10.5139
yyyy	-10.5147
140	-10.5158
▁audio	-10.5174
▁stat	-10.5175
nk	-10.5176
eral	-10.5191
chest	-10.52
▁thou	-10.5218
▁gra	-10.5232
▁typ	-10.5234
ose	-10.5263
rn	-10.5271
!!	-10.5272
▁product	-10.5273
▁lamb	-10.5275
cle	-10.5279
▁frustrate	-10.5282
ill	-10.5284
▁pris	-10.5299
ern	-10.5316
▁mus	-10.5316
▁whoa	-10.5331
tor	-10.5334
▁dar	-10.5362
fridge	-10.5363
▁cent	-10.5363
▁carl	-10.5363
achel	-10.5364
▁umm	-10.5379
ventur	-10.5382
parent	-10.5384
nnn	-10.5392
▁charger	-10.5392
gar	-10.5394
▁<33	-10.5405
sible	-10.5416
▁pee	-10.5425
▁butt	-10.5426
▁et	-10.5449
▁lip	-10.5457
▁kh	-10.5462
bay	-10.5464
▁skip	-10.547
▁tele	-10.5485
▁gran	-10.5493
12	-10.5497
▁wand	-10.5498
ith	-10.5504
▁nor	-10.5507
▁success	-10.5511
▁econom	-10.5511
▁29	-10.5512
▁avatar	-10.5512
▁confirm	-10.5512
▁process	-10.5512
▁politic	-10.5513
▁dancing	-10.5513
▁complain	-10.5513
▁escap	-10.5513
▁zero	-10.5513
▁motor	-10.5514
▁massive	-10.5514
▁dollar	-10.5515
▁december	-10.5515
▁blip	-10.5516
▁honor	-10.5517
▁hyper	-10.5518
▁roof	-10.5518
▁martin	-10.5519
▁heavy	-10.5522
▁beaut	-10.5523
▁extreme	-10.5526
▁virtual	-10.5527
▁snow	-10.5527
▁diego	-10.5528
▁whoop	-10.553
▁china	-10.5531
▁urgh	-10.5532
ngle	-10.5533
▁dread	-10.5534
▁boat	-10.5534
oooooooooooooooo	-10.5539
▁amus	-10.554
▁swif	-10.554
▁hee	-10.5541
▁europ	-10.5542
▁distan	-10.5542
▁hehehe	-10.5543
▁starwars	-10.5544
▁corner	-10.5545
alo	-10.555
▁knight	-10.5556
▁mol	-10.5556
▁wass	-10.5558
▁yuck	-10.5566
▁swimm	-10.5566
▁lawn	-10.557
▁prepare	-10.5571
▁thr	-10.5572
esco	-10.5579
▁forgot	-10.5582
▁cock	-10.5587
▁glas	-10.5591
teen	-10.5595
▁brian	-10.5608
▁hangin	-10.5624
▁rec	-10.5628
▁jr	-10.5631
▁hip	-10.5638
▁mous	-10.5641
▁vir	-10.5651
▁pad	-10.5656
ational	-10.5659
bar	-10.5663
▁entr	-10.5666
uk	-10.5667
▁venu	-10.5671
▁wee	-10.568
source	-10.5699
ftw	-10.5703
▁lea	-10.5704
▁fox	-10.5707
▁jes	-10.5724
tastic	-10.5726
▁cal	-10.5738
▁apolog	-10.5744
zz	-10.5747
▁rang	-10.5759
orrow	-10.5763
▁rio	-10.58
mous	-10.5801
mare	-10.5809
▁mummy	-10.5817
lyn	-10.5829
rizon	-10.5834
tain	-10.5839
dol	-10.584
▁gree	-10.5851
nack	-10.5868
cou	-10.5887
ear	-10.5892
▁gre	-10.5914
▁theme	-10.5914
▁cow	-10.5926
esh	-10.5927
cie	-10.5981
▁bot	-10.5985
ena	-10.5989
▁mp	-10.6007
▁whoo	-10.6019
settle	-10.603
▁gal	-10.6053
ui	-10.6064
▁wen	-10.6066
▁lov	-10.6069
ium	-10.6072
ison	-10.6076
▁aka	-10.6079
tttt	-10.6081
uch	-10.6087
▁accidental	-10.6089
cus	-10.612
ack	-10.6122
▁eww	-10.6141
▁cs	-10.6154
old	-10.6168
▁chin	-10.618
box	-10.6182
gh	-10.6185
▁intern	-10.6194
▁pun	-10.6204
▁por	-10.6214
▁clos	-10.6215
tta	-10.6216
▁ste	-10.6217
--	-10.6243
▁ping	-10.6253
nkle	-10.6254
▁vaca	-10.6267
field	-10.6276
mother	-10.6289
look	-10.6291
ooooo	-10.6295
13	-10.6305
▁bud	-10.6306
▁activ	-10.6307
eeeeee	-10.6351
▁brit	-10.6353
ttt	-10.6372
▁supp	-10.639
ww	-10.6398
op	-10.6409
▁grandpa	-10.641
▁pri	-10.6411
ken	-10.6414
niversa	-10.642
azine	-10.6421
▁brilliant	-10.6422
▁celebrity	-10.6422
▁condition	-10.6422
▁rehears	-10.6422
▁increas	-10.6422
▁strike	-10.6422
▁sneez	-10.6422
▁typical	-10.6422
▁smash	-10.6422
▁daw	-10.6422
▁resist	-10.6422
▁engage	-10.6422
▁nephew	-10.6422
▁leavin	-10.6422
▁chili	-10.6423
▁britney	-10.6423
▁adult	-10.6423
▁chemist	-10.6423
▁mitchel	-10.6423
▁lemon	-10.6424
▁yell	-10.6425
▁wrk	-10.6427
▁digit	-10.6428
▁smack	-10.643
▁quali	-10.6431
▁bomb	-10.6432
▁hahahahaha	-10.6432
mask	-10.6433
▁500	-10.6433
▁assum	-10.6434
▁adopt	-10.6434
▁ohhhh	-10.6434
cky	-10.6435
▁wicke	-10.6438
▁villa	-10.644
▁comin	-10.6442
kyo	-10.6443
▁henr	-10.6444
▁doug	-10.6445
▁poet	-10.6445
▁chop	-10.6446
▁scan	-10.6452
gow	-10.6454
▁hw	-10.6456
▁muffin	-10.6458
ime	-10.6461
▁select	-10.6462
▁tooo	-10.6465
▁taxi	-10.6468
▁police	-10.6469
let	-10.6475
▁lang	-10.6479
▁morris	-10.6482
▁metal	-10.6483
▁script	-10.6487
ito	-10.6487
lan	-10.649
▁calm	-10.6491
▁48	-10.6501
▁jenn	-10.6501
sure	-10.6504
wa	-10.6507
was	-10.6512
▁clock	-10.6516
▁comedy	-10.6519
▁fold	-10.6521
▁ruby	-10.6523
▁react	-10.6528
▁rose	-10.6531
inate	-10.6531
bby	-10.6531
een	-10.6544
▁meeee	-10.6548
▁max	-10.6553
▁amy	-10.6555
▁os	-10.6564
have	-10.6564
iz	-10.6567
▁speaker	-10.6579
▁recep	-10.6582
▁spra	-10.6587
▁corn	-10.6588
au	-10.6588
▁txt	-10.6595
sis	-10.6605
uggle	-10.6612
▁nom	-10.6615
▁27	-10.6621
▁bass	-10.6638
▁sec	-10.6641
▁appt	-10.6648
ruise	-10.665
▁robin	-10.6655
▁spoil	-10.6669
▁marie	-10.6675
wan	-10.6678
▁employe	-10.6695
▁ris	-10.6697
▁form	-10.67
▁remov	-10.6719
▁cast	-10.6737
▁ooooh	-10.6775
▁dem	-10.6779
▁lova	-10.6787
gi	-10.6821
itle	-10.6822
mb	-10.685
▁holl	-10.6857
rent	-10.6872
she	-10.6884
▁adore	-10.6894
▁abo	-10.6924
▁surf	-10.6945
▁tat	-10.6948
possible	-10.696
▁exp	-10.6967
▁ge	-10.698
ggg	-10.6984
▁pot	-10.6992
▁explo	-10.6995
▁boom	-10.6995
▁amaze	-10.7003
iii	-10.7013
▁ku	-10.7017
▁maria	-10.7023
▁mommas	-10.7034
nson	-10.7035
uv	-10.7056
ino	-10.7059
▁lee	-10.7083
▁hel	-10.7087
▁gri	-10.7092
lf	-10.7096
▁noo	-10.7098
▁frog	-10.7113
▁friendly	-10.7113
!!!	-10.7125
▁gm	-10.7148
dg	-10.7163
▁ross	-10.7169
▁75	-10.717
▁vol	-10.7173
▁pra	-10.7182
ou	-10.7186
▁pla	-10.7216
core	-10.7227
▁ughhh	-10.7238
▁sur	-10.7239
▁31	-10.7254
▁eas	-10.7259
mmy	-10.7264
▁vin	-10.7266
▁ski	-10.7277
myspace	-10.7278
world	-10.7279
change	-10.728
gan	-10.7281
ana	-10.7281
▁ap	-10.7283
▁rot	-10.7283
▁ging	-10.7286
he	-10.7287
hood	-10.729
pool	-10.729
▁belly	-10.7291
▁anti	-10.7303
den	-10.7305
▁shar	-10.731
ti	-10.7316
▁pocket	-10.7317
▁cleve	-10.7318
nz	-10.7336
:30	-10.7338
▁bahaha	-10.7352
alian	-10.737
▁mia	-10.7373
▁tax	-10.7379
ourne	-10.7382
ease	-10.739
▁300	-10.7396
▁madd	-10.7407
▁cop	-10.7416
▁hollyoak	-10.7422
▁tradition	-10.7422
▁walmart	-10.7422
▁previous	-10.7422
▁relative	-10.7422
▁negativ	-10.7422
▁obama	-10.7422
▁document	-10.7422
mount	-10.7422
▁pretend	-10.7422
▁omfg	-10.7422
▁pepper	-10.7422
▁reject	-10.7422
▁thrill	-10.7422
▁convert	-10.7422
▁shatter	-10.7422
▁edge	-10.7422
▁neighbour	-10.7422
▁guid	-10.7422
▁errand	-10.7423
▁lift	-10.7423
▁garage	-10.7423
▁princess	-10.7423
▁snuggle	-10.7423
▁compli	-10.7423
▁living	-10.7423
▁task	-10.7424
▁tutor	-10.7424
▁monster	-10.7425
cise	-10.7426
▁doesn	-10.7426
▁fool	-10.7427
▁straighten	-10.743
▁nugget	-10.743
▁colour	-10.743
▁font	-10.7431
▁publish	-10.7431
▁pitch	-10.7431
▁java	-10.7431
▁blond	-10.7432
ckey	-10.7433
▁eight	-10.7433
▁patient	-10.7433
▁kirk	-10.7436
▁stalker	-10.7438
▁champ	-10.7439
▁withdraw	-10.744
▁vegeta	-10.744
▁mic	-10.7441
▁wheel	-10.7441
▁teenage	-10.7441
▁emotional	-10.7442
▁bubble	-10.7446
▁attract	-10.7446
▁pug	-10.7447
95	-10.7448
▁grate	-10.7448
▁papa	-10.7452
▁jet	-10.7454
▁tube	-10.7455
▁inspiration	-10.7456
▁chuck	-10.7457
▁grace	-10.7458
▁bind	-10.746
igan	-10.746
▁cullen	-10.7461
11	-10.7465
▁tape	-10.7467
▁melb	-10.7474
verse	-10.7476
▁looo	-10.7481
ik	-10.7485
▁confuse	-10.7485
▁vip	-10.7488
▁gall	-10.7493
▁nat	-10.7495
▁useless	-10.7495
▁xxxx	-10.7501
▁cla	-10.7501
rl	-10.7504
▁geni	-10.7505
▁gh	-10.7506
▁ob	-10.751
▁map	-10.7514
austin	-10.7516
shot	-10.7521
rain	-10.7526
▁hai	-10.7526
▁confus	-10.7533
▁28	-10.7547
▁gotta	-10.7555
ussi	-10.7558
▁imac	-10.7559
▁heel	-10.7565
▁charli	-10.757
▁naw	-10.7576
▁afterward	-10.7583
▁km	-10.7584
▁bush	-10.759
ette	-10.7591
▁des	-10.7594
▁dal	-10.7598
▁factor	-10.76
▁sent	-10.76
▁tb	-10.76
ign	-10.76
▁solo	-10.7604
▁hur	-10.7611
red	-10.7617
▁bleh	-10.7623
ring	-10.7626
untu	-10.7628
▁apt	-10.764
nior	-10.7646
▁mari	-10.7647
▁legal	-10.7667
▁geez	-10.7669
▁ky	-10.7669
itch	-10.7672
▁sal	-10.7678
▁ram	-10.7679
▁sight	-10.7682
▁produce	-10.7685
lauren	-10.7686
cu	-10.7703
▁houst	-10.7704
▁noon	-10.773
▁tend	-10.7734
▁loo	-10.7749
roid	-10.7753
lu	-10.7753
der	-10.7754
▁trans	-10.7765
▁heal	-10.7766
▁buck	-10.7789
▁09	-10.7795
▁gil	-10.7796
▁tre	-10.7815
car	-10.7845
▁havn	-10.7846
▁wooo	-10.7849
▁tyle	-10.7869
cket	-10.7879
▁path	-10.789
bble	-10.7903
udge	-10.7909
▁kitte	-10.7928
▁yayy	-10.7934
▁liver	-10.7939
ock	-10.7939
▁tie	-10.7952
ection	-10.7953
rant	-10.7955
vo	-10.7961
▁mit	-10.7971
▁wor	-10.7992
▁runn	-10.7999
<	-10.8007
ume	-10.8008
wwww	-10.8046
tz	-10.8047
▁ish	-10.8057
▁sus	-10.8068
usion	-10.8094
ament	-10.8096
oh	-10.8118
▁motivat	-10.812
ella	-10.8134
▁vo	-10.8148
▁gt	-10.8153
her	-10.8158
▁humo	-10.8162
▁sayin	-10.8163
▁yog	-10.8166
▁chu	-10.8231
aw	-10.8233
▁rela	-10.8234
▁fuck	-10.8238
bron	-10.8245
ps	-10.8249
▁emo	-10.8252
▁yahoo	-10.8256
▁hater	-10.8288
uuu	-10.8297
tie	-10.8308
eeeee	-10.8315
▁tra	-10.8318
▁23	-10.8351
point	-10.8364
xxx	-10.8373
▁ft	-10.838
tweet	-10.8383
▁remo	-10.8385
▁hub	-10.8388
shirt	-10.8389
shake	-10.839
youtube	-10.839
paper	-10.8391
break	-10.8393
life	-10.8395
fl	-10.8396
▁arch	-10.8396
bear	-10.84
happy	-10.8406
ism	-10.8411
strip	-10.8411
▁eee	-10.8435
▁div	-10.8444
rry	-10.8468
▁chees	-10.8472
rix	-10.8472
hours	-10.8497
▁oz	-10.8497
aaaaa	-10.8498
▁zoo	-10.8502
sert	-10.851
dddd	-10.8519
▁jean	-10.8524
mind	-10.8526
▁prop	-10.8526
ja	-10.8528
▁kn	-10.8531
▁particular	-10.8533
▁author	-10.8533
▁basket	-10.8533
▁disgust	-10.8533
▁accomplish	-10.8533
▁craig	-10.8533
▁ridiculous	-10.8533
▁abandon	-10.8533
▁honour	-10.8533
▁blind	-10.8533
▁reference	-10.8533
▁predict	-10.8533
▁engine	-10.8533
▁instant	-10.8533
▁contribut	-10.8533
▁insuran	-10.8533
▁staff	-10.8533
▁grape	-10.8533
▁industr	-10.8533
▁guest	-10.8533
▁shape	-10.8534
▁andrew	-10.8534
▁unfair	-10.8534
▁register	-10.8534
▁pony	-10.8534
▁appro	-10.8535
▁munch	-10.8535
▁jerk	-10.8535
▁michelle	-10.8535
▁punch	-10.8535
▁extend	-10.8536
▁niece	-10.854
▁comf	-10.8541
▁yellow	-10.8541
rlin	-10.8541
▁injur	-10.8542
▁whit	-10.8543
▁dump	-10.8543
▁equa	-10.8544
▁united	-10.8544
▁chore	-10.8545
▁tight	-10.8546
▁swing	-10.8547
▁oop	-10.8549
▁santa	-10.855
▁wana	-10.8551
▁loop	-10.8551
selve	-10.8554
▁bread	-10.8556
▁rough	-10.8556
▁coke	-10.8556
▁societ	-10.8558
▁400	-10.8559
mato	-10.8562
▁minor	-10.8565
▁glu	-10.8566
▁slip	-10.8566
▁curve	-10.8566
▁lost	-10.8566
▁posit	-10.8568
▁lar	-10.8569
▁contract	-10.857
▁defin	-10.857
▁env	-10.8571
▁sauce	-10.8573
▁chain	-10.8573
▁transf	-10.8573
▁plurk	-10.8577
▁george	-10.8578
kk	-10.8579
▁bridge	-10.8582
▁dum	-10.8583
▁jord	-10.8586
▁stee	-10.8592
▁stoke	-10.8595
oooooo	-10.8595
▁noise	-10.8598
▁nine	-10.8603
yo	-10.8606
▁kk	-10.8606
▁subscribe	-10.861
▁pigg	-10.8612
▁educat	-10.8612
▁leader	-10.8621
▁improv	-10.8626
▁bride	-10.8627
▁rug	-10.863
mark	-10.8631
▁chase	-10.8632
▁mod	-10.8633
▁charm	-10.8635
ient	-10.8635
pp	-10.864
ennesse	-10.864
▁britt	-10.8653
▁pout	-10.8658
▁moz	-10.8659
▁es	-10.8662
15	-10.867
:45	-10.8672
tal	-10.8673
▁ahhhhh	-10.8675
can	-10.8675
▁pup	-10.8682
ious	-10.8689
apor	-10.8693
▁--	-10.8695
▁cri	-10.8699
eography	-10.8728
polis	-10.8728
icle	-10.8733
got	-10.8737
▁semi	-10.8737
▁psych	-10.8742
oooo	-10.8745
▁wipe	-10.8746
▁erm	-10.8749
▁avail	-10.8753
take	-10.8753
05	-10.8757
▁mill	-10.8765
:00	-10.8777
bag	-10.8786
itor	-10.8798
▁unit	-10.88
▁medic	-10.8809
ny	-10.8811
tual	-10.8811
▁pine	-10.8812
pack	-10.8818
▁curs	-10.8827
ety	-10.8828
va	-10.8837
▁attic	-10.8839
▁graph	-10.8841
▁fre	-10.8841
<333	-10.8842
▁greas	-10.8862
▁gum	-10.8865
▁male	-10.8868
▁jonath	-10.8875
▁minu	-10.8893
du	-10.8902
▁cus	-10.8917
▁bell	-10.892
▁frustrat	-10.8926
▁nx	-10.8933
▁needle	-10.8949
▁stone	-10.8956
ender	-10.8966
▁darl	-10.8975
▁termina	-10.8986
▁jar	-10.9
▁awh	-10.9005
rname	-10.9007
▁curl	-10.9013
pus	-10.9015
▁ub	-10.9015
ody	-10.9024
▁ji	-10.9025
▁ds	-10.9039
▁tony	-10.9041
oil	-10.9044
uffle	-10.9068
kkk	-10.9075
▁clap	-10.9076
ool	-10.908
▁kev	-10.9089
ellen	-10.9094
▁toooo	-10.9096
▁crew	-10.9098
uff	-10.91
▁mint	-10.9114
fection	-10.9121
dia	-10.9135
▁bou	-10.9139
▁loooo	-10.914
▁pu	-10.9149
▁hopeful	-10.9163
right	-10.9165
▁marle	-10.9167
ctive	-10.9176
▁rep	-10.918
und	-10.9206
▁tee	-10.9208
▁pott	-10.9251
25	-10.9252
▁pil	-10.9268
rass	-10.9271
▁mmmmmm	-10.9275
ground	-10.928
▁veg	-10.9292
pong	-10.9299
▁hv	-10.9302
▁les	-10.9303
ggin	-10.9307
ita	-10.9317
▁gp	-10.9333
mph	-10.9336
ks	-10.9338
org	-10.934
▁fin	-10.9349
etail	-10.9359
▁hood	-10.9359
nnnn	-10.9371
27	-10.9377
▁todd	-10.9391
▁kat	-10.9415
▁writer	-10.9418
bie	-10.9435
▁bord	-10.9438
▁ughhhh	-10.9446
▁las	-10.9472
iff	-10.9473
▁zac	-10.9487
order	-10.9524
▁earn	-10.9527
▁jen	-10.9549
:	-10.9549
oooooooooo	-10.9552
ssa	-10.9557
anda	-10.9564
are	-10.9584
▁opera	-10.9585
▁yeahh	-10.9591
kea	-10.9608
▁bow	-10.9611
ilet	-10.9617
ok	-10.9631
just	-10.9634
walk	-10.9637
castle	-10.9637
dale	-10.9637
rrrr	-10.964
check	-10.9643
watch	-10.9645
oop	-10.9646
heart	-10.9646
count	-10.965
talk	-10.9652
wait	-10.9656
made	-10.9661
case	-10.9661
▁mass	-10.9677
▁kenn	-10.9678
chet	-10.9682
▁secur	-10.9683
ampa	-10.9684
▁grrrr	-10.9688
tty	-10.9706
▁bas	-10.9711
bc	-10.9722
▁kara	-10.9723
lda	-10.9735
fc	-10.9738
oid	-10.974
burg	-10.9741
26	-10.9742
wl	-10.975
▁refresh	-10.9752
▁diff	-10.9753
▁poll	-10.9761
▁gar	-10.9762
▁crowd	-10.9771
▁cord	-10.9773
▁advan	-10.9774
▁celeb	-10.9776
thon	-10.9781
air	-10.9781
▁edinburgh	-10.9783
▁stubborn	-10.9783
▁concentrat	-10.9783
▁disturb	-10.9783
▁experiment	-10.9783
▁lecture	-10.9783
▁license	-10.9783
▁progress	-10.9783
▁sanctuary	-10.9783
▁similar	-10.9783
▁vacuum	-10.9783
▁cobra	-10.9783
▁require	-10.9783
▁satisf	-10.9783
▁emerge	-10.9783
▁potential	-10.9783
▁burrito	-10.9783
▁thunderstorm	-10.9783
▁podcast	-10.9783
▁filip	-10.9783
▁community	-10.9783
▁commute	-10.9783
camp	-10.9783
▁purpose	-10.9783
▁blogging	-10.9784
▁gurl	-10.9784
▁balance	-10.9784
▁nathan	-10.9785
▁prize	-10.9785
▁metro	-10.9785
▁tort	-10.9785
concept	-10.9785
▁2010	-10.9786
▁silence	-10.9787
▁milan	-10.9787
▁blink	-10.9787
▁trash	-10.9788
▁humid	-10.9788
▁portug	-10.9788
tsk	-10.9789
▁jackson	-10.979
▁seven	-10.9791
▁therap	-10.9791
▁casa	-10.9791
▁matthe	-10.9792
▁professional	-10.9793
▁800	-10.9795
▁eve	-10.9796
qu	-10.9796
▁louis	-10.9796
▁zach	-10.9796
▁technolog	-10.9798
▁steph	-10.9799
▁korean	-10.98
▁biz	-10.98
▁rick	-10.98
▁rare	-10.9804
▁dragon	-10.9806
itis	-10.9807
▁prince	-10.9808
▁legit	-10.981
▁crown	-10.981
▁erin	-10.9811
▁nash	-10.9812
▁familia	-10.9812
▁amazon	-10.9812
▁bre	-10.9813
▁halo	-10.9813
▁judd	-10.9815
▁broad	-10.9817
▁pride	-10.9817
▁technical	-10.982
▁wid	-10.982
▁morn	-10.9822
▁shave	-10.9823
▁exit	-10.9823
▁crisp	-10.9824
▁exper	-10.9826
▁pian	-10.9829
▁indiana	-10.9829
▁flavo	-10.983
ise	-10.9832
▁tomor	-10.9833
▁smith	-10.9835
ht	-10.9838
▁coat	-10.9839
▁sew	-10.984
▁wack	-10.9848
▁99	-10.9851
▁brace	-10.9852
▁kan	-10.9859
sion	-10.9862
▁ban	-10.9863
▁salt	-10.9864
▁india	-10.9868
▁hurra	-10.9868
▁blend	-10.987
▁pork	-10.9872
phew	-10.9876
▁mango	-10.9877
▁chrom	-10.9882
▁dork	-10.9884
▁bac	-10.9884
▁leigh	-10.9894
▁valle	-10.9898
▁hung	-10.9901
▁uber	-10.9908
▁ughh	-10.9908
rid	-10.9909
▁vent	-10.9911
▁lon	-10.9914
▁lor	-10.9916
▁skate	-10.992
▁physical	-10.9921
lando	-10.9921
yyyyyy	-10.9921
▁programme	-10.9929
▁argu	-10.9939
ria	-10.9945
▁shan	-10.9945
▁goose	-10.9945
▁carol	-10.9954
sage	-10.9954
▁soda	-10.9962
▁citi	-10.9972
▁roman	-10.9975
▁yey	-10.998
07	-10.9985
▁dedicate	-10.9991
ridge	-10.9995
sha	-11.0012
▁cere	-11.0018
nger	-11.0024
▁comm	-11.0032
tah	-11.0033
▁harm	-11.0039
▁owe	-11.005
▁audi	-11.0054
av	-11.0056
▁sud	-11.0059
▁wel	-11.0059
▁sting	-11.0061
junk	-11.0063
ternal	-11.0074
▁tak	-11.0077
▁pierc	-11.0081
▁lind	-11.0085
▁shi	-11.0106
▁der	-11.0108
aked	-11.0115
af	-11.0131
xx	-11.0134
issy	-11.0139
▁shann	-11.014
ledge	-11.0153
witty	-11.0157
vin	-11.0171
▁zon	-11.0172
▁hor	-11.0173
▁relie	-11.0198
eez	-11.0212
▁sti	-11.0225
▁myster	-11.0236
rror	-11.0252
▁nan	-11.0254
▁tai	-11.0258
ctor	-11.027
www	-11.0272
▁36	-11.0276
▁fog	-11.0278
▁kidd	-11.0287
face	-11.0323
bee	-11.0324
▁bby	-11.0335
▁promot	-11.0339
▁tro	-11.034
gen	-11.0349
eat	-11.0352
.5	-11.0368
▁digg	-11.037
▁moi	-11.0373
ara	-11.0377
▁ali	-11.0381
▁holla	-11.039
ju	-11.0391
▁sg	-11.0414
▁twee	-11.0417
▁latte	-11.0431
▁mat	-11.0433
lb	-11.0441
iiii	-11.0448
▁poster	-11.046
▁fl	-11.046
▁lah	-11.0488
now	-11.0491
▁tempt	-11.0509
▁sniffl	-11.0513
kid	-11.0518
▁won	-11.0534
▁impos	-11.0543
▁vh	-11.0545
hhhhh	-11.0546
table	-11.0558
live	-11.0562
▁cud	-11.0568
aron	-11.0602
▁shit	-11.0605
▁kim	-11.0607
nor	-11.0612
▁virgin	-11.0617
sand	-11.0622
mar	-11.0622
▁lad	-11.0625
rist	-11.0634
▁waaa	-11.0636
ango	-11.0637
▁beard	-11.0642
pill	-11.0662
tc	-11.0664
▁termin	-11.0687
rc	-11.0688
zard	-11.0691
▁bail	-11.0695
▁edd	-11.0696
lace	-11.0699
▁reg	-11.072
▁coup	-11.0723
▁nu	-11.0743
▁bal	-11.0757
▁yess	-11.0765
cia	-11.0771
▁thi	-11.0775
unge	-11.0777
▁reve	-11.0781
iness	-11.0782
wel	-11.0799
▁cig	-11.0808
▁beast	-11.0819
▁toss	-11.0832
▁berry	-11.0834
▁imp	-11.0838
▁freaking	-11.0839
izzle	-11.0849
▁jas	-11.0852
▁mental	-11.0863
▁fil	-11.0878
tel	-11.0883
▁looooo	-11.0897
▁sooooooo	-11.0907
opin	-11.091
▁cia	-11.0914
▁function	-11.095
▁70	-11.0958
▁sig	-11.0964
▁sup	-11.0969
▁flor	-11.0975
▁hiya	-11.0979
▁itch	-11.0989
eva	-11.099
organ	-11.1012
cer	-11.1024
luck	-11.1028
ull	-11.1032
▁mb	-11.1048
▁route	-11.1055
▁cycl	-11.1056
clock	-11.1064
schedule	-11.1066
club	-11.1068
screen	-11.1068
place	-11.1068
tag	-11.107
twitter	-11.107
apple	-11.1071
▁trou	-11.1074
bank	-11.1075
▁wil	-11.1084
▁congrats	-11.1108
dog	-11.1114
▁tommor	-11.1115
▁flip	-11.1119
▁rum	-11.112
▁brew	-11.1129
▁saf	-11.1138
▁jt	-11.1141
▁logic	-11.1143
▁german	-11.1147
▁ker	-11.1155
▁disc	-11.1156
▁fift	-11.1157
aland	-11.1157
▁deli	-11.1158
▁muah	-11.1162
▁250	-11.1165
rw	-11.1169
▁cher	-11.1171
▁didn	-11.1174
gy	-11.1174
▁twittering	-11.1177
▁boooo	-11.1179
lash	-11.1186
:3	-11.1193
▁korea	-11.1194
pu	-11.1199
▁awwwww	-11.1206
▁academ	-11.1207
▁judge	-11.1208
▁3333	-11.1208
▁kris	-11.1209
▁spirit	-11.1211
▁immediate	-11.1211
▁neglect	-11.1211
▁separate	-11.1211
▁nintendo	-11.1211
▁selena	-11.1211
▁linux	-11.1211
▁squirrel	-11.1211
▁bueno	-11.1211
▁complicate	-11.1211
▁insomnia	-11.1211
▁postpone	-11.1211
▁concern	-11.1211
▁commercial	-11.1211
▁oprah	-11.1211
▁president	-11.1211
▁suspen	-11.1212
▁cinnam	-11.1212
▁electric	-11.1212
▁tiger	-11.1212
▁generation	-11.1212
▁input	-11.1212
▁sympath	-11.1212
▁foreign	-11.1213
▁puke	-11.1213
▁transport	-11.1213
▁convo	-11.1213
▁commence	-11.1213
▁disapp	-11.1213
▁lex	-11.1213
▁mamma	-11.1213
▁crab	-11.1213
▁command	-11.1214
▁retarded	-11.1214
▁tonsil	-11.1215
▁jud	-11.1215
▁sweden	-11.1216
▁trump	-11.1217
▁10:30	-11.1217
▁soulja	-11.1218
▁renew	-11.1219
▁common	-11.1219
▁asyl	-11.1219
▁damage	-11.1219
▁1.5	-11.1219
born	-11.122
▁firm	-11.122
resso	-11.122
▁630	-11.122
▁invest	-11.122
▁cheek	-11.122
▁3:30	-11.1224
▁ultimate	-11.1224
▁assembl	-11.1224
▁python	-11.1225
▁combo	-11.1225
▁blogger	-11.1225
▁capita	-11.1225
▁africa	-11.1226
▁economic	-11.1228
▁chair	-11.1229
▁auntie	-11.1229
▁coco	-11.1229
▁highlight	-11.1232
▁embarrass	-11.1232
▁explore	-11.1233
▁jim	-11.1234
▁duh	-11.1234
▁dash	-11.1235
▁favor	-11.1236
▁trial	-11.1237
▁leak	-11.1239
▁supris	-11.124
ii	-11.124
▁methink	-11.124
▁dip	-11.1242
▁carrie	-11.1243
▁harry	-11.1245
▁bbl	-11.1245
▁march	-11.1247
▁babysitte	-11.1247
▁wreck	-11.1247
▁natal	-11.1249
bert	-11.1249
▁fuzz	-11.1251
▁wiki	-11.1252
▁anxi	-11.1252
▁hum	-11.1253
▁fluff	-11.1258
▁gna	-11.1259
▁nana	-11.1261
▁kath	-11.1261
▁sack	-11.1262
▁yearbook	-11.1265
berg	-11.1267
▁fc	-11.1271
▁claim	-11.1271
▁jake	-11.1272
▁goood	-11.1279
▁smoking	-11.128
▁teh	-11.1281
▁glob	-11.1283
▁nj	-11.1285
rr	-11.1287
▁bitter	-11.1294
▁univers	-11.1295
▁ql	-11.1296
86	-11.1296
lien	-11.1298
▁nerv	-11.1304
▁polar	-11.1304
▁flood	-11.1306
▁jazz	-11.1307
▁priorit	-11.1309
lette	-11.1318
tude	-11.1326
▁hott	-11.1328
▁reck	-11.1333
▁uhh	-11.1334
▁asian	-11.1347
▁ros	-11.1348
nant	-11.1352
johnny	-11.1358
▁guine	-11.1362
▁pg	-11.1365
▁luke	-11.1382
yes	-11.1382
▁expo	-11.1383
▁hahahah	-11.1384
king	-11.1384
▁mikey	-11.1385
▁punk	-11.1386
▁hoora	-11.1386
▁belgi	-11.1387
▁wha	-11.1388
▁director	-11.1388
▁alice	-11.1399
bur	-11.1399
emily	-11.1407
meber	-11.1415
▁unfollowe	-11.1422
▁dian	-11.1422
▁kelli	-11.1425
▁jan	-11.1431
▁wale	-11.1451
__	-11.1452
arcel	-11.1454
▁git	-11.1455
.00	-11.1456
matic	-11.1467
su	-11.1467
lj	-11.1469
raft	-11.1482
▁listenin	-11.1513
▁rez	-11.1514
▁rc	-11.1521
▁sher	-11.1529
▁meee	-11.1533
stell	-11.1542
▁checkin	-11.1542
zy	-11.155
▁marg	-11.1556
▁nh	-11.1559
▁wink	-11.1564
▁ven	-11.1565
cat	-11.1571
▁rap	-11.1571
▁poppin	-11.1578
▁cc	-11.158
▁meow	-11.1582
agne	-11.1599
ute	-11.1625
▁pam	-11.1643
▁fal	-11.1645
otic	-11.1647
40	-11.1649
spare	-11.1654
▁davis	-11.1656
▁colla	-11.1664
ative	-11.167
▁infa	-11.1683
▁lover	-11.1693
▁soooooooo	-11.1695
▁loveeee	-11.1702
▁allah	-11.1705
▁bounc	-11.1707
▁199	-11.1708
▁damp	-11.1719
▁ach	-11.1728
▁lolz	-11.1731
emma	-11.1732
▁serve	-11.1736
stop	-11.1747
▁sacr	-11.1754
wi	-11.1758
ping	-11.1759
▁hawk	-11.1763
▁woe	-11.1776
luke	-11.1777
▁motivate	-11.1778
▁col	-11.179
ryl	-11.1795
▁ness	-11.1798
poo	-11.1799
▁rach	-11.18
39	-11.1806
▁cod	-11.1815
bs	-11.1825
ffle	-11.1839
▁dunk	-11.1853
cho	-11.186
ns	-11.1862
▁gee	-11.1864
▁bai	-11.1866
hack	-11.1872
▁jp	-11.1882
ition	-11.1884
gage	-11.1884
rrow	-11.1885
▁allen	-11.1891
lll	-11.1905
tiff	-11.1928
▁chan	-11.1931
lon	-11.1931
ova	-11.1938
90	-11.1943
▁haz	-11.1946
imple	-11.195
bi	-11.1988
▁mai	-11.1993
▁dn	-11.1994
▁fare	-11.2004
vation	-11.2009
rk	-11.2016
▁stra	-11.2018
▁bing	-11.2025
▁hunting	-11.203
bus	-11.2032
▁thingy	-11.2037
▁tryin	-11.2042
▁tut	-11.2068
sel	-11.2071
name	-11.2098
▁fro	-11.2102
▁js	-11.2104
▁ref	-11.2109
▁brav	-11.2123
▁aaaa	-11.2133
hu	-11.2151
iv	-11.2179
sie	-11.2181
▁fai	-11.2186
nel	-11.2187
solid	-11.2231
▁preg	-11.225
sup	-11.2262
rra	-11.2268
ssss	-11.2271
ray	-11.2277
▁simp	-11.2279
/3	-11.2285
ag	-11.2287
llow	-11.2308
ood	-11.2319
ffin	-11.2328
fon	-11.2337
▁spit	-11.2351
▁knowledg	-11.2375
▁journal	-11.2389
▁hash	-11.2389
▁rove	-11.239
ury	-11.2392
▁dee	-11.2453
▁stor	-11.2468
raz	-11.2469
▁twp	-11.247
▁tall	-11.2494
▁shaw	-11.2495
▁oooo	-11.2511
curry	-11.2511
ash	-11.2522
ario	-11.2523
▁bun	-11.2561
ctic	-11.257
▁tooooo	-11.2571
▁bul	-11.2595
dio	-11.26
ata	-11.262
▁kel	-11.2628
▁whin	-11.2631
▁kit	-11.2637
▁unfollow	-11.2639
errr	-11.2641
▁qua	-11.2656
▁jacke	-11.2659
pt	-11.2665
nder	-11.2667
▁yeahhh	-11.2667
pol	-11.2682
form	-11.2685
ated	-11.2685
mper	-11.2687
judic	-11.2689
▁mel	-11.2706
door	-11.2708
ather	-11.2709
▁yeaaa	-11.2711
cream	-11.2714
▁guil	-11.2722
stream	-11.2731
follow	-11.2731
loud	-11.2732
2009	-11.2732
school	-11.2734
sunday	-11.2736
cal	-11.2738
jack	-11.274
kick	-11.2742
▁relaxin	-11.2744
print	-11.2745
nail	-11.2747
chase	-11.2748
vine	-11.2759
monday	-11.276
▁unfortunat	-11.2779
▁tx	-11.2785
hem	-11.2785
atter	-11.2788
lic	-11.2789
rvo	-11.2801
ux	-11.2804
sense	-11.2813
era	-11.2819
▁spark	-11.2822
rming	-11.2835
▁cran	-11.2839
ewl	-11.2842
▁lav	-11.2848
know	-11.2853
player	-11.286
shire	-11.2861
cr	-11.2867
▁crazi	-11.2868
nate	-11.287
ffect	-11.2871
run	-11.2871
▁spli	-11.2874
▁intro	-11.2874
▁chang	-11.2876
ace	-11.2876
▁advert	-11.2876
▁philosoph	-11.2878
▁devastate	-11.2878
▁hayfever	-11.2878
▁spongebob	-11.2878
▁yogurt	-11.2878
▁equi	-11.2878
▁yippee	-11.2878
▁achieve	-11.2878
grumble	-11.2878
▁jersey	-11.2878
▁brief	-11.2878
▁sneak	-11.2878
▁rescue	-11.2878
▁chillax	-11.2878
▁investigat	-11.2878
▁whistle	-11.2878
parallel	-11.2878
▁pfft	-11.2878
▁popcorn	-11.2878
▁ultra	-11.2878
▁webcam	-11.2878
▁daniel	-11.2878
▁francis	-11.2878
▁banquet	-11.2878
▁financial	-11.2878
▁veronica	-11.2878
▁formula	-11.2878
▁clark	-11.2878
▁specific	-11.2878
▁grin	-11.2878
▁reminis	-11.2878
▁automatic	-11.2879
▁squee	-11.2879
▁reinstall	-11.2879
▁slack	-11.2879
▁cooper	-11.2879
▁anxious	-11.2879
▁enterpri	-11.2879
holic	-11.2879
▁menu	-11.288
▁drank	-11.288
▁patron	-11.288
▁chelse	-11.288
▁granny	-11.288
▁assist	-11.288
▁cyber	-11.288
▁vocal	-11.288
▁sample	-11.2881
▁calcul	-11.2881
▁seque	-11.2881
▁slap	-11.2882
▁tenni	-11.2882
▁leop	-11.2882
▁richard	-11.2882
ebra	-11.2882
▁thick	-11.2883
▁chai	-11.2883
▁edward	-11.2884
ecess	-11.2885
▁datab	-11.2885
hhhhhhhh	-11.2886
▁metallic	-11.2886
▁frickin	-11.2887
▁jail	-11.2887
▁notebook	-11.2888
▁mah	-11.2888
▁retire	-11.2888
▁rail	-11.2889
▁mami	-11.2889
▁neva	-11.289
▁knox	-11.2891
▁dont	-11.2891
▁cheat	-11.2891
▁missin	-11.2891
lphi	-11.2892
▁chew	-11.2892
▁frame	-11.2893
▁breed	-11.2893
▁saving	-11.2894
▁murder	-11.2894
▁4:30	-11.2895
▁lappy	-11.2895
▁vamp	-11.2896
▁selfish	-11.2896
▁oppos	-11.2897
▁evry	-11.2898
▁pas	-11.2898
▁stead	-11.2899
▁gooood	-11.29
▁wendy	-11.29
▁gasp	-11.2901
▁bash	-11.2902
▁ken	-11.2902
▁dais	-11.2902
▁utter	-11.2903
▁cache	-11.2903
▁devil	-11.2905
sex	-11.2905
▁desperate	-11.2906
▁bbc	-11.291
▁fatty	-11.2913
▁cabin	-11.2914
▁bookmark	-11.2917
▁fund	-11.2919
▁propos	-11.292
▁quin	-11.292
kay	-11.2921
▁destroy	-11.2921
▁pleasant	-11.2922
▁tramp	-11.2922
▁robert	-11.2922
aunt	-11.2923
chard	-11.2923
▁disco	-11.2923
▁invent	-11.2926
▁express	-11.2927
laine	-11.2928
▁defo	-11.2929
▁christin	-11.2929
▁animate	-11.2931
ris	-11.2934
▁aero	-11.2935
pit	-11.2937
▁carpe	-11.2941
▁raid	-11.2942
edicu	-11.2944
▁tal	-11.2948
▁shade	-11.2949
▁quil	-11.2949
▁whisper	-11.2949
▁represent	-11.2954
▁prima	-11.2955
htm	-11.2956
▁luca	-11.2956
▁endless	-11.2957
leigh	-11.2958
▁hmmmm	-11.2961
ould	-11.2966
▁aud	-11.2966
▁nz	-11.2979
▁stripe	-11.298
▁yaay	-11.2982
eet	-11.2983
---	-11.2984
aaaa	-11.299
.1	-11.2991
ud	-11.2997
▁frost	-11.3006
▁kc	-11.301
▁bol	-11.3011
mom	-11.3019
▁aaaah	-11.3019
▁rad	-11.3024
▁mothersday	-11.3027
ttern	-11.3027
▁jose	-11.3032
▁strip	-11.3032
▁hal	-11.3035
▁monk	-11.3036
▁parad	-11.3038
▁snor	-11.3038
▁drinkin	-11.3042
▁gary	-11.3043
armac	-11.3046
▁rocket	-11.3046
lim	-11.3046
▁fred	-11.3049
▁sac	-11.3049
ich	-11.3056
▁sharp	-11.3065
▁warp	-11.3066
rey	-11.3071
▁inbox	-11.3072
▁je	-11.3074
▁inform	-11.3081
▁gate	-11.3084
then	-11.3089
14	-11.3089
▁pwn	-11.3092
▁kil	-11.3094
▁worm	-11.3094
▁minim	-11.3095
▁ox	-11.31
▁drea	-11.3105
▁refu	-11.3113
ene	-11.3121
▁magical	-11.3124
agon	-11.3126
▁muse	-11.3136
***	-11.3137
pop	-11.3139
▁cryin	-11.3147
▁harle	-11.3153
▁ilove	-11.3159
▁tango	-11.3165
▁3-	-11.3166
▁weep	-11.3167
iece	-11.3168
lah	-11.3169
motion	-11.317
▁gla	-11.3175
▁slam	-11.3179
andra	-11.3186
▁hp	-11.3188
▁evi	-11.3191
▁mayb	-11.3197
rish	-11.3199
sho	-11.32
str	-11.3203
bai	-11.3203
▁counter	-11.3206
show	-11.3208
▁za	-11.3212
▁lun	-11.3213
tos	-11.3215
▁tty	-11.3219
▁sean	-11.3243
▁dell	-11.3244
mie	-11.3259
ela	-11.3283
▁freez	-11.3286
lia	-11.3329
▁bri	-11.3332
iden	-11.3333
▁archi	-11.3333
coming	-11.3337
▁anne	-11.3341
▁kb	-11.3342
▁flyer	-11.3349
▁eek	-11.3354
▁ack	-11.3366
eye	-11.3369
▁william	-11.3369
pac	-11.337
sar	-11.3373
▁val	-11.3375
▁hayle	-11.3383
▁rout	-11.3386
▁poly	-11.3401
▁chipo	-11.3401
▁headin	-11.3404
▁trag	-11.341
quet	-11.3412
▁tumbl	-11.3418
▁brod	-11.3426
▁cassi	-11.3428
pro	-11.3429
runch	-11.3442
rta	-11.3447
▁sever	-11.3451
▁agh	-11.3457
▁lott	-11.3459
▁shizz	-11.346
hb	-11.3479
gu	-11.3482
log	-11.3485
▁lou	-11.3506
weak	-11.3507
iki	-11.3519
100	-11.3528
gra	-11.3534
▁vie	-11.3543
▁playin	-11.3556
afe	-11.3561
▁stan	-11.3562
▁rh	-11.3573
aste	-11.3578
ulet	-11.3578
▁lm	-11.3584
index	-11.3585
los	-11.3594
lush	-11.3595
yr	-11.36
▁kl	-11.3601
tour	-11.3623
ran	-11.3626
▁syn	-11.3626
▁gl	-11.3657
▁clu	-11.3661
▁alllll	-11.3662
▁invi	-11.3666
▁ding	-11.3669
▁pep	-11.3669
▁rah	-11.3691
▁dri	-11.3703
taly	-11.3713
▁sticker	-11.3714
say	-11.3729
▁lies	-11.3746
▁sui	-11.3746
▁nano	-11.3747
▁imo	-11.3755
og	-11.3756
▁spec	-11.3758
▁lan	-11.3788
pr	-11.3799
ank	-11.3805
sty	-11.3812
▁brai	-11.3826
rt	-11.3833
▁blis	-11.3834
▁defen	-11.3836
▁whi	-11.3838
▁ham	-11.3843
▁vanc	-11.3843
▁phill	-11.3847
84	-11.3848
solut	-11.3848
▁thirt	-11.3856
lg	-11.3859
▁cherr	-11.386
ling	-11.3866
71	-11.3867
native	-11.3869
vs	-11.3869
▁gu	-11.3877
▁baker	-11.3891
▁boooooooo	-11.3904
▁infect	-11.3908
ummer	-11.3908
▁rac	-11.3908
▁arre	-11.391
▁zo	-11.3925
▁amo	-11.3945
emme	-11.3951
▁unf	-11.3952
:0	-11.3978
▁skoo	-11.3987
▁cya	-11.3989
▁lean	-11.3991
▁78	-11.3999
bel	-11.4005
ooooooo	-11.4005
▁reee	-11.401
pock	-11.4022
omet	-11.4028
▁seri	-11.404
idan	-11.4052
iku	-11.4063
aster	-11.4073
zzz	-11.4076
bab	-11.4077
▁fed	-11.4095
▁aver	-11.4099
▁spani	-11.4099
ota	-11.4105
▁tab	-11.4106
▁elle	-11.4106
65	-11.4114
nya	-11.4128
ov	-11.4131
▁dome	-11.4136
▁pd	-11.4148
dc	-11.4153
▁mart	-11.4156
▁kud	-11.4163
▁deto	-11.4166
▁moder	-11.4168
▁spo	-11.4177
▁prof	-11.4183
▁vis	-11.4187
▁yaaaa	-11.4187
▁heyyy	-11.4188
▁dogg	-11.4193
46	-11.4195
04	-11.4215
▁sour	-11.4219
other	-11.4229
▁marc	-11.4237
:20	-11.4248
▁pearl	-11.4255
jo	-11.4258
kia	-11.4259
17	-11.4275
▁jee	-11.428
rch	-11.4289
▁natur	-11.431
▁cass	-11.4313
▁24/	-11.4326
ato	-11.4347
giggle	-11.436
19	-11.4367
agan	-11.44
fly	-11.4403
▁loll	-11.4407
▁eva	-11.4413
▁booz	-11.4423
▁gov	-11.4424
eeeeeee	-11.4426
tony	-11.4448
band	-11.445
imo	-11.4456
rad	-11.4463
press	-11.4467
▁hh	-11.4468
▁err	-11.4469
▁ohhhhh	-11.4479
pping	-11.4483
ush	-11.4489
▁promo	-11.4491
fin	-11.4493
▁cultur	-11.4526
lish	-11.454
fish	-11.4541
▁yeeee	-11.4542
▁boi	-11.4565
▁cris	-11.457
500	-11.4576
▁hmp	-11.4596
▁circ	-11.4597
▁zen	-11.46
▁styl	-11.4605
templ	-11.4607
script	-11.4624
kr	-11.4624
fer	-11.4628
88	-11.4638
▁luc	-11.4639
▁physic	-11.4656
elli	-11.4657
▁mil	-11.4665
ssy	-11.4668
rie	-11.4668
pi	-11.4674
▁3.0	-11.4681
▁av	-11.4684
▁ahhhhhh	-11.4702
▁tick	-11.4709
▁meaning	-11.471
cide	-11.4714
team	-11.4715
party	-11.4726
good	-11.4726
▁hul	-11.4726
jean	-11.4729
▁32	-11.4729
mouth	-11.4733
free	-11.4734
ntention	-11.4734
glass	-11.4734
expect	-11.4735
design	-11.4735
record	-11.4735
sweet	-11.4736
learn	-11.4736
course	-11.4736
track	-11.4736
please	-11.4737
direct	-11.4739
text	-11.4741
cuz	-11.4742
food	-11.4742
fail	-11.4742
mission	-11.4744
who	-11.4746
mobile	-11.4747
▁alg	-11.4749
miss	-11.475
burn	-11.4753
wire	-11.4755
issue	-11.4755
moz	-11.4756
▁kee	-11.4761
power	-11.4767
fast	-11.477
▁scot	-11.4773
▁origin	-11.4781
▁absolut	-11.4783
itter	-11.4785
▁grav	-11.4786
super	-11.4788
▁08	-11.4794
▁starwar	-11.4802
thma	-11.4802
▁puff	-11.4812
▁norm	-11.4815
beth	-11.4831
▁bart	-11.4836
ppy	-11.4839
▁boooooo	-11.4839
▁hype	-11.485
pal	-11.486
▁pw	-11.4867
▁sweety	-11.4869
▁nooooooo	-11.4869
▁weigh	-11.4871
▁alternat	-11.4875
▁blogge	-11.4877
▁brick	-11.4877
▁multipl	-11.4878
rupt	-11.4878
▁samantha	-11.4878
▁concret	-11.4878
▁environment	-11.4878
▁hiccup	-11.4878
▁lincoln	-11.4878
▁permanent	-11.4878
▁umbrella	-11.4878
▁fascinat	-11.4878
▁hairdresser	-11.4878
▁optimis	-11.4878
▁phoenix	-11.4878
▁requiem	-11.4878
▁stevie	-11.4878
▁malaysia	-11.4878
▁neuro	-11.4878
▁stunning	-11.4878
▁unemploy	-11.4878
▁eurovision	-11.4878
▁registr	-11.4878
▁elevat	-11.4878
▁visual	-11.4878
▁awkward	-11.4878
▁exhibit	-11.4878
▁bamboo	-11.4878
▁hawaii	-11.4878
▁transform	-11.4878
▁tmw	-11.4878
▁hawt	-11.4878
▁adapt	-11.4878
▁remix	-11.4878
▁dangerous	-11.4879
▁consum	-11.4879
▁mourn	-11.4879
▁disconnect	-11.4879
▁slipper	-11.4879
▁derby	-11.4879
▁mosqu	-11.4879
▁attach	-11.488
▁precious	-11.488
▁limb	-11.488
▁nacho	-11.488
▁wolf	-11.488
▁romantic	-11.488
▁urban	-11.488
▁patric	-11.488
▁fricke	-11.488
▁calori	-11.488
▁leather	-11.4881
.30	-11.4881
▁twenty	-11.4881
▁clara	-11.4881
▁colum	-11.4881
prosper	-11.4881
▁russian	-11.4881
▁tierd	-11.4881
▁sumthin	-11.4881
▁fiddle	-11.4881
▁opport	-11.4881
sssssss	-11.4882
▁phase	-11.4882
▁stalk	-11.4882
▁oct	-11.4883
▁crumb	-11.4883
▁restrict	-11.4883
gawd	-11.4884
▁seperat	-11.4885
▁waaaaay	-11.4885
▁commit	-11.4885
▁sketch	-11.4885
▁charles	-11.4885
▁ag	-11.4885
▁cert	-11.4885
▁6:30	-11.4886
▁var	-11.4886
▁surve	-11.4886
▁teehee	-11.4886
▁yaaay	-11.4887
▁maccy	-11.4887
▁volume	-11.4887
▁among	-11.4887
egor	-11.4887
▁crunch	-11.4888
▁manual	-11.4888
▁sail	-11.4889
▁sweep	-11.4889
▁material	-11.4889
▁shri	-11.489
▁xox	-11.489
▁grove	-11.4891
▁coldplay	-11.4891
▁region	-11.4892
▁claire	-11.4892
_____	-11.4893
▁rash	-11.4894
▁minne	-11.4896
▁sophi	-11.4896
.99	-11.4897
▁champion	-11.4897
▁appropriate	-11.4898
▁impatient	-11.4898
▁jog	-11.4899
▁appeal	-11.4899
▁offens	-11.4902
▁acct	-11.4903
▁mash	-11.4903
▁gent	-11.4903
▁jones	-11.4903
▁mock	-11.4904
ife	-11.4904
▁legend	-11.4905
▁premier	-11.4908
rpor	-11.4908
▁pala	-11.491
▁germ	-11.491
zi	-11.4911
▁peek	-11.4911
▁gang	-11.4912
▁madam	-11.4912
▁2.5	-11.4913
▁ugg	-11.4915
▁hong	-11.4915
▁koi	-11.4917
eehee	-11.4917
▁oreo	-11.4918
▁buffet	-11.4918
▁valu	-11.4919
▁thurs	-11.4919
▁careful	-11.492
rican	-11.4921
▁combin	-11.4922
▁87	-11.4924
dle	-11.4926
lmao	-11.4926
rgent	-11.4926
▁delight	-11.4926
▁translat	-11.4927
late	-11.4927
▁sarcas	-11.493
▁clem	-11.4931
▁arrange	-11.4932
▁gadget	-11.4932
▁roger	-11.4932
▁chile	-11.4933
▁making	-11.4935
▁slide	-11.4936
▁indulge	-11.4938
▁tuck	-11.4939
▁sq	-11.4939
▁craft	-11.4942
▁madre	-11.4943
▁might	-11.4943
▁06	-11.4944
▁pac	-11.4944
▁jelly	-11.4944
▁operation	-11.4945
▁intens	-11.4948
▁laser	-11.4949
owl	-11.4951
za	-11.4951
▁kap	-11.4953
crimina	-11.4954
▁coinciden	-11.4956
94	-11.4957
▁chir	-11.4958
▁masc	-11.4958
▁warren	-11.496
▁choc	-11.4967
aaaaaaa	-11.4968
▁reuni	-11.4969
ulin	-11.497
▁scal	-11.4971
▁nav	-11.4972
▁timing	-11.4972
nia	-11.4976
▁kg	-11.4978
▁maaa	-11.498
▁shhh	-11.4983
▁whale	-11.4983
▁wot	-11.4987
▁spice	-11.4987
fuck	-11.4988
patio	-11.4991
▁zoe	-11.4993
▁yesss	-11.4994
gee	-11.4994
▁dv	-11.5
▁urge	-11.5001
▁vp	-11.5003
18	-11.5004
page	-11.5004
▁protect	-11.5005
▁lyk	-11.5006
▁88	-11.5006
▁1.2	-11.5009
courage	-11.5009
nsult	-11.5011
▁presen	-11.5016
▁logical	-11.5017
▁disk	-11.5022
▁hil	-11.5022
▁bach	-11.5023
▁jere	-11.5025
dora	-11.5025
▁ash	-11.5026
igh	-11.5027
▁rome	-11.5028
▁string	-11.503
llll	-11.503
▁boohoo	-11.5032
▁upside	-11.5034
▁wheat	-11.5038
▁diver	-11.5042
▁imax	-11.5044
▁tale	-11.5044
ttle	-11.5048
▁38	-11.5054
▁competit	-11.5066
▁peru	-11.5067
ghett	-11.5068
lous	-11.5072
kn	-11.5081
▁blur	-11.5083
note	-11.5085
▁definit	-11.5086
▁zu	-11.5086
▁dayyyy	-11.5087
▁lik	-11.5091
fall	-11.5091
▁tila	-11.5092
pse	-11.5093
▁loveee	-11.5097
▁ovi	-11.511
▁aaaaa	-11.5112
▁rof	-11.5112
iley	-11.5117
▁jewel	-11.5117
▁medici	-11.5121
▁thinkin	-11.5124
▁massac	-11.5126
oku	-11.5132
▁rb	-11.5141
crime	-11.5147
▁whiske	-11.5151
▁thnk	-11.5172
▁canad	-11.5185
▁ours	-11.5188
▁trap	-11.5189
bw	-11.52
tter	-11.52
▁ahahaha	-11.52
▁lag	-11.5206
andy	-11.5224
▁enthusias	-11.523
▁mov	-11.5231
ami	-11.5234
nake	-11.5238
nold	-11.5241
bre	-11.5245
▁macar	-11.525
▁rp	-11.5254
sino	-11.5255
guin	-11.5259
▁tue	-11.5261
▁4-	-11.5272
ls	-11.5273
rrrrrrrr	-11.5273
▁raw	-11.5284
▁vince	-11.5288
nks	-11.5289
crib	-11.5293
▁lolol	-11.5299
erson	-11.5307
▁lace	-11.5321
▁fond	-11.5321
▁cott	-11.5322
fg	-11.5328
ahahaha	-11.5332
chu	-11.5332
fu	-11.5333
mia	-11.5334
ati	-11.5337
▁alexi	-11.5351
god	-11.5357
▁grrrrr	-11.5371
dual	-11.5371
▁eu	-11.5374
tra	-11.5376
▁triple	-11.5382
ambu	-11.5384
▁qi	-11.5385
▁ron	-11.5385
gate	-11.5385
essa	-11.5387
visa	-11.5388
▁knw	-11.5393
▁tap	-11.5395
▁198	-11.54
16	-11.5401
yard	-11.5401
cious	-11.5404
▁boredddd	-11.5408
▁tir	-11.5412
▁thin	-11.5416
onia	-11.5423
▁drow	-11.5433
ddd	-11.5436
▁cn	-11.5436
▁expan	-11.5452
umor	-11.5457
easy	-11.5475
vid	-11.5485
▁dough	-11.549
▁collab	-11.5504
lick	-11.5504
ila	-11.5512
▁populat	-11.5525
hab	-11.5531
▁subtl	-11.5536
!!!!	-11.554
▁doom	-11.5547
web	-11.5548
lux	-11.5555
▁translate	-11.5567
▁mann	-11.557
▁eatin	-11.5573
▁jag	-11.5573
hana	-11.5583
▁amen	-11.5583
▁tad	-11.5589
ura	-11.5605
ski	-11.5613
▁descri	-11.5615
icant	-11.5619
morning	-11.5621
▁vine	-11.5625
▁arr	-11.563
▁ferr	-11.5643
▁evan	-11.5644
▁seek	-11.565
ravis	-11.5651
ral	-11.5653
nest	-11.5657
ao	-11.5662
osh	-11.5662
vent	-11.5678
labor	-11.5687
nsen	-11.5692
hoo	-11.5702
▁stad	-11.5704
▁mua	-11.5709
flu	-11.574
urni	-11.575
▁pudd	-11.5755
▁beef	-11.5755
una	-11.5766
lid	-11.5794
mal	-11.5797
tar	-11.5802
rrie	-11.5803
xoxo	-11.5803
▁sob	-11.5808
format	-11.5822
▁nig	-11.5827
egal	-11.583
ebo	-11.5854
▁dupe	-11.5866
ox	-11.587
85	-11.5885
▁allll	-11.5894
▁comet	-11.5917
▁sb	-11.5934
▁ama	-11.5941
▁abb	-11.595
dent	-11.5957
▁nation	-11.5964
▁graci	-11.5969
▁lia	-11.597
▁paradi	-11.5978
▁sniff	-11.5981
▁coo	-11.5987
mich	-11.5991
▁aah	-11.5992
▁joan	-11.5996
▁dill	-11.6027
▁hahha	-11.6028
▁trippin	-11.6035
▁lug	-11.6045
cap	-11.6047
▁devo	-11.6062
▁resu	-11.6065
▁tera	-11.607
▁ext	-11.6075
▁chart	-11.6086
ren	-11.6098
▁gua	-11.611
lice	-11.6114
hug	-11.6115
if	-11.6123
▁mala	-11.6135
▁fuk	-11.6145
fff	-11.6168
pho	-11.6168
cid	-11.6172
▁boost	-11.6177
▁differ	-11.6182
fi	-11.62
▁gam	-11.6246
▁sleepin	-11.6248
rome	-11.6249
▁organiz	-11.6252
▁gamb	-11.6275
ku	-11.6277
days	-11.6283
▁swee	-11.6288
aku	-11.6288
han	-11.629
erland	-11.6295
▁camb	-11.6309
▁headlin	-11.6318
our	-11.6334
▁wom	-11.635
▁lone	-11.6351
ama	-11.6359
64	-11.6361
arita	-11.6362
▁tum	-11.6381
▁thas	-11.6388
hahaha	-11.6388
utz	-11.639
antic	-11.6412
dependen	-11.6416
sc	-11.6432
▁barn	-11.6436
▁sch	-11.6442
▁tack	-11.6468
fo	-11.647
tab	-11.6478
99	-11.6485
▁kayl	-11.6491
▁shoo	-11.6501
▁paw	-11.6505
▁slo	-11.6525
nte	-11.6526
ji	-11.6537
▁fren	-11.6538
bud	-11.6543
▁deni	-11.6561
nyt	-11.6595
▁subm	-11.6613
▁moms	-11.6629
▁peel	-11.664
▁aaah	-11.6649
▁conf	-11.665
ging	-11.6652
▁boa	-11.6656
eath	-11.6668
iggin	-11.6683
▁alo	-11.6686
▁suite	-11.6689
▁ooooo	-11.669
▁uhhh	-11.6706
code	-11.6706
▁150	-11.6713
▁fart	-11.6716
rrrrr	-11.6718
dos	-11.672
▁pand	-11.674
bm	-11.674
hhhhhhh	-11.6741
▁160	-11.6745
ub	-11.6751
agent	-11.6752
mint	-11.6761
pie	-11.6764
▁sham	-11.6775
▁mega	-11.6796
▁tragi	-11.6805
lope	-11.6809
▁eps	-11.6812
uuuuu	-11.6814
▁exce	-11.6818
▁pau	-11.682
rous	-11.6834
▁mono	-11.6849
ounce	-11.6859
▁cel	-11.6866
▁2.	-11.6871
▁byeeee	-11.6874
unky	-11.6881
▁alt	-11.6896
wid	-11.6904
▁psh	-11.6911
▁mun	-11.6911
▁summa	-11.6913
center	-11.6918
mont	-11.6924
rah	-11.6927
aha	-11.6932
tract	-11.6932
▁dong	-11.6939
uti	-11.694
01	-11.6954
bow	-11.6958
adi	-11.6959
58	-11.6963
▁sko	-11.6964
▁emb	-11.6965
quer	-11.6965
▁swam	-11.6968
▁wooooo	-11.6995
ept	-11.6996
zle	-11.7015
scribe	-11.7015
▁firef	-11.7016
kah	-11.7029
oka	-11.7035
mature	-11.7041
lle	-11.7043
egan	-11.7043
▁mmmmm	-11.7049
▁lat	-11.7053
▁vict	-11.7054
cca	-11.7055
nati	-11.7086
▁okayy	-11.7104
▁pero	-11.7124
▁65	-11.7137
.7	-11.7138
trip	-11.7139
vy	-11.7144
graph	-11.7147
▁upto	-11.7162
▁bali	-11.7162
wk	-11.7163
boo	-11.7171
eta	-11.7183
lucky	-11.7183
oooooooooooo	-11.7203
lam	-11.7205
volu	-11.7209
grade	-11.721
mina	-11.7215
vert	-11.7216
park	-11.7218
▁nause	-11.7219
fresh	-11.7224
nar	-11.7225
▁knit	-11.7225
belt	-11.7226
jour	-11.7227
fran	-11.7227
wear	-11.7229
rena	-11.723
unity	-11.7232
rge	-11.7233
comfort	-11.7233
venu	-11.7234
shift	-11.7234
addict	-11.7234
green	-11.7235
movie	-11.7236
drive	-11.7238
bike	-11.7241
after	-11.7241
father	-11.7243
blog	-11.7248
help	-11.7259
▁bin	-11.726
uhh	-11.7262
▁swed	-11.7265
ghhh	-11.7265
▁polic	-11.7269
argh	-11.7274
with	-11.7275
rock	-11.7277
24	-11.7279
spot	-11.7282
cool	-11.7283
▁sunda	-11.7284
thanks	-11.7299
ger	-11.7303
▁euro	-11.7305
▁babysitt	-11.7306
89	-11.7318
jb	-11.7328
auste	-11.7332
amel	-11.7335
▁contra	-11.7337
mile	-11.7338
wick	-11.7339
▁spic	-11.734
▁hahaa	-11.7341
▁bryan	-11.7344
▁shir	-11.7345
▁jak	-11.7349
sale	-11.735
▁soci	-11.735
▁intent	-11.7357
▁patien	-11.7357
▁multi	-11.7364
▁curren	-11.7365
aaaaaaaaaaa	-11.7367
▁yumm	-11.7368
moon	-11.7369
▁tink	-11.737
▁dodge	-11.7372
▁physi	-11.7374
lower	-11.7374
▁xxxxx	-11.7374
belly	-11.7375
▁livin	-11.7377
0000000000000000	-11.7378
▁caffein	-11.7378
▁individual	-11.7378
▁kardashian	-11.7378
▁participa	-11.7378
▁phenomen	-11.7378
▁rsvp	-11.7378
▁dissapoint	-11.7378
▁elliot	-11.7378
▁flirt	-11.7378
▁overwhelm	-11.7378
▁vodka	-11.7378
▁knacker	-11.7378
▁sleeeeep	-11.7378
▁coloss	-11.7378
▁alpha	-11.7378
▁melissa	-11.7378
▁fisch	-11.7378
▁associat	-11.7378
▁ashleigh	-11.7378
▁njoy	-11.7378
▁resign	-11.7378
▁phillip	-11.7378
▁jailbreak	-11.7378
▁depart	-11.7378
▁empath	-11.7378
▁fortunate	-11.7378
▁conflict	-11.7378
▁frapp	-11.7379
▁olympic	-11.7379
▁element	-11.7379
▁gramma	-11.7379
flow	-11.7379
▁spree	-11.7379
▁encourage	-11.7379
▁geneva	-11.7379
▁framework	-11.7379
▁violent	-11.7379
▁hiii	-11.7379
hunt	-11.7379
▁carbon	-11.738
▁inlaw	-11.738
▁zzzz	-11.738
▁kimba	-11.738
▁decorat	-11.738
▁serena	-11.738
▁staple	-11.738
▁hhaha	-11.7381
▁preschool	-11.7381
▁hundre	-11.7381
▁goddamn	-11.7381
▁cheeseburg	-11.7381
▁niqht	-11.7381
▁alternative	-11.7381
▁digest	-11.7382
▁sprinkl	-11.7382
▁hughes	-11.7382
▁sleeve	-11.7382
▁amanda	-11.7382
▁syke	-11.7383
▁innocent	-11.7383
▁mocha	-11.7383
brow	-11.7383
▁mimi	-11.7384
▁retro	-11.7384
▁drew	-11.7384
fill	-11.7384
▁hobo	-11.7385
▁finna	-11.7385
▁warrant	-11.7386
▁pfff	-11.7386
fleet	-11.7386
▁claud	-11.7386
▁8:30	-11.7386
▁nike	-11.7387
▁civi	-11.7387
▁shallow	-11.7387
▁spur	-11.7387
▁lacr	-11.7388
tawa	-11.7388
did	-11.7388
▁lump	-11.7389
▁macaron	-11.7389
▁12:30	-11.7389
▁twitterbug	-11.7389
▁tweak	-11.7391
▁4.30	-11.7391
▁bias	-11.7392
▁yike	-11.7393
▁5:30	-11.7394
▁integr	-11.7394
roduce	-11.7395
▁gimme	-11.7395
▁xoxox	-11.7395
▁kindergar	-11.7395
▁premi	-11.7395
▁gather	-11.7395
▁portable	-11.7395
▁gahh	-11.7396
▁shore	-11.7396
▁oww	-11.7397
etro	-11.7398
rel	-11.7398
▁chiro	-11.7398
▁whack	-11.74
▁silen	-11.7401
▁ironic	-11.7402
▁thorn	-11.7402
▁rack	-11.7403
▁schol	-11.7403
consol	-11.7403
▁rankin	-11.7403
▁keychain	-11.7404
▁procrastinat	-11.7404
▁67	-11.7404
▁eden	-11.7405
▁dsl	-11.7405
▁yip	-11.7406
▁valid	-11.7406
▁jona	-11.7406
▁600	-11.7406
▁ditch	-11.7406
▁ladie	-11.7407
gus	-11.7408
▁wealth	-11.7408
▁6.30	-11.7409
▁jerry	-11.7409
▁luvv	-11.7409
▁habit	-11.741
▁twiit	-11.741
▁glow	-11.741
aire	-11.7411
▁anyhoo	-11.7411
smic	-11.7412
men	-11.7412
▁shelter	-11.7413
▁omelet	-11.7414
▁jj	-11.7414
▁pow	-11.7415
▁404	-11.7416
gomez	-11.7417
▁flush	-11.7419
▁troop	-11.7419
▁lens	-11.7419
▁sadden	-11.742
▁found	-11.7421
▁diva	-11.7421
▁shark	-11.7423
▁occasional	-11.7425
▁fuse	-11.7425
pork	-11.7427
▁brun	-11.743
▁erase	-11.743
▁fallow	-11.743
rg	-11.7432
▁quad	-11.7434
▁trist	-11.7434
▁adob	-11.7434
▁foto	-11.7435
▁bacteri	-11.7436
oooooooool	-11.7436
▁yummmm	-11.7437
▁nutt	-11.7437
▁mosh	-11.7439
▁blaz	-11.744
carly	-11.744
▁sho	-11.7442
uce	-11.7443
ayy	-11.7444
▁ahah	-11.7447
▁extensi	-11.7447
cumber	-11.7448
▁oyst	-11.7451
▁babysitter	-11.7451
▁sep	-11.7453
▁pave	-11.7453
▁douche	-11.7453
▁refreshing	-11.7454
ani	-11.7454
▁atti	-11.7455
▁barry	-11.7455
▁deff	-11.7456
laud	-11.7457
▁slee	-11.7458
▁michel	-11.7458
mpre	-11.7461
size	-11.7462
chelle	-11.7465
▁leic	-11.7466
▁bold	-11.7467
▁waitress	-11.7467
▁humbl	-11.7467
▁lax	-11.7469
lumber	-11.7472
▁tuna	-11.7475
▁puffy	-11.7475
aver	-11.7476
▁iloveyou	-11.7478
▁siya	-11.7478
▁lob	-11.748
▁ooop	-11.7483
ooooooooo	-11.7484
▁loving	-11.7488
▁rhy	-11.7488
▁struct	-11.7489
▁heeey	-11.749
▁flame	-11.7491
new	-11.7491
▁jodi	-11.7491
▁charming	-11.7491
▁kent	-11.7492
▁booooo	-11.7498
▁barbe	-11.7502
▁psp	-11.7502
33	-11.7504
▁yayyy	-11.7504
45	-11.7506
▁soww	-11.7509
iss	-11.7515
▁gem	-11.7521
make	-11.7522
▁litter	-11.7524
▁cage	-11.7524
▁novel	-11.7526
▁recit	-11.7528
this	-11.7529
▁thirst	-11.753
twit	-11.7533
▁thaa	-11.7534
▁terr	-11.7542
▁pirat	-11.7542
.6	-11.7543
due	-11.7546
▁diner	-11.7549
tha	-11.755
reckle	-11.7551
ippin	-11.7552
▁amor	-11.7552
▁cinc	-11.7552
owa	-11.7553
ole	-11.7553
▁gene	-11.7553
▁flippin	-11.7555
▁yao	-11.7556
▁42	-11.7556
cade	-11.7567
arro	-11.7567
▁goooo	-11.7573
▁studyin	-11.7576
▁julie	-11.7576
▁bitch	-11.7584
▁esta	-11.7586
sec	-11.7587
▁hog	-11.7592
▁headphone	-11.7592
▁pluck	-11.7593
▁nova	-11.7593
mmmnnn	-11.7594
ies	-11.7597
▁kristin	-11.7599
askar	-11.7605
▁fran	-11.7606
▁compos	-11.7607
▁perfection	-11.7608
'-	-11.7615
▁eeeeeee	-11.7617
fun	-11.762
▁chaper	-11.7625
▁44	-11.7632
▁transit	-11.7633
pen	-11.7637
▁wool	-11.7639
state	-11.7641
▁lush	-11.7645
▁migrat	-11.7647
▁mold	-11.765
▁shad	-11.7651
▁supervis	-11.7652
▁bond	-11.7654
hahahha	-11.7654
▁media	-11.7658
rope	-11.7661
▁helen	-11.7661
ooool	-11.7666
▁mv	-11.7668
kill	-11.767
inggg	-11.7673
▁cordon	-11.7684
▁urself	-11.7685
▁hobb	-11.7694
raine	-11.7694
▁lipstic	-11.7695
▁eli	-11.7695
asure	-11.7695
▁cracker	-11.7695
mins	-11.77
cifi	-11.7702
▁gentl	-11.7702
cos	-11.7714
bat	-11.7718
mens	-11.7726
▁traumati	-11.773
▁chand	-11.7737
claw	-11.7742
▁cof	-11.7743
▁castle	-11.775
▁lolll	-11.7752
mode	-11.7752
▁nemo	-11.7753
▁cope	-11.7756
gin	-11.7758
urger	-11.7773
leg	-11.7776
bad	-11.7777
ob	-11.778
ooow	-11.778
▁reno	-11.778
▁swit	-11.7782
▁abus	-11.7782
▁liquo	-11.7782
▁blo	-11.7801
ribe	-11.7802
▁kav	-11.7806
▁cou	-11.7816
▁snapp	-11.7817
liant	-11.782
▁penn	-11.7826
▁dodg	-11.7827
▁vivi	-11.783
▁stayin	-11.7834
▁ark	-11.7841
sta	-11.7843
.50	-11.7846
▁95	-11.7847
ooowww	-11.7848
▁julia	-11.7848
▁chee	-11.7855
▁magn	-11.7858
▁morr	-11.7858
▁arg	-11.7861
trait	-11.7862
▁shell	-11.7863
▁blad	-11.7864
▁hopeless	-11.7873
▁pms	-11.7874
leaf	-11.7877
etti	-11.7882
▁watt	-11.7885
▁gen	-11.7898
▁blun	-11.7909
runk	-11.791
▁daaa	-11.7911
▁db	-11.7913
▁vita	-11.7913
▁deny	-11.7916
▁heeeee	-11.7919
▁springs	-11.7924
▁dosen	-11.7925
▁terrifi	-11.793
erine	-11.794
▁pho	-11.7954
▁ent	-11.7962
lea	-11.7972
bye	-11.7986
▁socks	-11.7987
▁lend	-11.7988
▁nas	-11.7989
▁danger	-11.7989
▁perk	-11.8002
▁rem	-11.8003
▁tart	-11.8014
▁teen	-11.8026
▁fir	-11.8027
ifie	-11.803
▁sista	-11.8036
vera	-11.8043
▁readin	-11.8047
▁surre	-11.805
altim	-11.8055
▁were	-11.8071
▁speci	-11.8092
zu	-11.8093
shia	-11.8096
▁fibe	-11.8104
▁acqu	-11.8104
pose	-11.8109
▁eur	-11.8115
▁izza	-11.8116
▁gab	-11.8117
▁empi	-11.8135
▁belate	-11.814
▁bab	-11.814
mmmmmmm	-11.816
▁vids	-11.8161
▁dooo	-11.8176
row	-11.8178
olley	-11.8188
▁tweeps	-11.8191
ider	-11.82
kit	-11.8204
▁kon	-11.8218
▁journalis	-11.8222
▁tail	-11.8224
▁pul	-11.823
▁jun	-11.8235
▁spy	-11.8236
▁notting	-11.8239
call	-11.824
card	-11.8245
▁pitt	-11.8246
▁arghhh	-11.8249
▁depo	-11.8254
▁tyr	-11.826
▁rainin	-11.8265
zim	-11.8271
▁cp	-11.8279
bet	-11.8297
▁grrrrrrr	-11.8306
▁sia	-11.8314
haha	-11.833
tnam	-11.833
tron	-11.8341
▁pleaseee	-11.8348
▁pipe	-11.8356
▁yi	-11.8359
erica	-11.836
▁wifey	-11.8364
▁funk	-11.8369
▁browni	-11.8373
▁callin	-11.8383
▁lv	-11.8386
uge	-11.8386
salon	-11.8412
tamp	-11.8416
▁jer	-11.8432
▁stephen	-11.8434
eeeeeeeeee	-11.8443
▁ez	-11.8443
▁heath	-11.8451
clam	-11.8454
▁nai	-11.8459
▁pickle	-11.8464
▁horri	-11.8467
▁knoww	-11.847
▁starbu	-11.8476
▁humm	-11.8483
▁pear	-11.8486
▁admire	-11.8486
scar	-11.8488
▁wrestl	-11.8489
mai	-11.8492
wahaha	-11.8506
gn	-11.8512
▁tourn	-11.8528
aboo	-11.8529
▁geo	-11.8532
▁nek	-11.8542
ess	-11.8544
▁hami	-11.855
dbur	-11.8552
lar	-11.8568
tcot	-11.8578
ros	-11.8587
▁aswel	-11.8594
msta	-11.8594
▁acc	-11.8599
▁dood	-11.8606
▁partyyyy	-11.8607
▁kau	-11.8637
beanie	-11.864
▁lof	-11.8645
▁cuuu	-11.8649
21	-11.865
▁showin	-11.8657
▁mur	-11.8659
del	-11.8673
space	-11.8675
tche	-11.8679
aaay	-11.8681
▁blu	-11.8694
▁waz	-11.8694
▁wayyy	-11.8707
▁whatta	-11.8724
▁nin	-11.8726
▁lub	-11.8731
arte	-11.8736
fron	-11.8742
▁pai	-11.8745
▁amaz	-11.8763
▁pel	-11.8766
rify	-11.8772
▁yeahhhhh	-11.8772
▁meme	-11.8775
▁ann	-11.8779
bor	-11.8779
ett	-11.878
isa	-11.8781
▁comb	-11.8788
▁lane	-11.8829
▁bloom	-11.8851
onica	-11.8852
▁chemic	-11.8858
▁condo	-11.886
anta	-11.8871
▁raz	-11.8875
▁sw	-11.8881
tell	-11.8914
roc	-11.8922
▁wak	-11.8932
rtle	-11.8945
▁grim	-11.895
200	-11.8954
tical	-11.8956
aska	-11.8958
full	-11.8963
uccin	-11.8977
eeeeeeeeeee	-11.898
ght	-11.899
▁nag	-11.9002
ome	-11.9004
▁aware	-11.902
kp	-11.9021
vast	-11.9022
aught	-11.9036
▁girly	-11.9041
▁kittyk	-11.9058
fr	-11.9066
▁humou	-11.9091
astic	-11.9113
boot	-11.9119
aaahhh	-11.912
link	-11.9122
iro	-11.9131
onda	-11.9136
▁conta	-11.9148
ick	-11.9163
evi	-11.9174
▁conven	-11.919
▁rag	-11.9195
▁nic	-11.9199
eria	-11.9202
47	-11.9212
▁terra	-11.9216
▁stil	-11.9216
▁reli	-11.923
▁wwe	-11.9235
▁reasonabl	-11.9237
mac	-11.9257
ried	-11.9261
▁vega	-11.9269
yum	-11.9272
97	-11.9289
▁schoo	-11.9305
yay	-11.9309
▁feb	-11.9315
aaaaaa	-11.932
▁inspir	-11.9334
tchy	-11.9336
nicle	-11.9341
▁wrestle	-11.9344
lance	-11.9348
peak	-11.9349
▁liz	-11.9349
tile	-11.9353
lamber	-11.9363
▁nim	-11.9363
▁kawa	-11.9367
▁daz	-11.9373
orce	-11.9374
▁oc	-11.9381
lib	-11.9383
agg	-11.9387
maze	-11.9402
▁dion	-11.941
sterda	-11.9414
ssssss	-11.943
jan	-11.944
▁mooo	-11.9443
pad	-11.9443
▁han	-11.9447
23	-11.9449
dress	-11.9464
ello	-11.9467
▁num	-11.9469
ike	-11.9475
▁bla	-11.9479
▁pimp	-11.9487
▁bor	-11.9488
▁cuba	-11.9495
kkkk	-11.9519
anger	-11.9549
ggle	-11.9553
▁ada	-11.9564
▁ooohhh	-11.9569
▁desi	-11.958
▁anticipat	-11.9584
nica	-11.959
▁adel	-11.9596
cial	-11.9606
ulation	-11.9612
▁grump	-11.9613
▁jai	-11.9622
sir	-11.9623
mmer	-11.9629
tumble	-11.9635
ram	-11.9637
cp	-11.9647
22	-11.9649
96	-11.9656
▁vm	-11.9683
▁todayyy	-11.9695
▁ene	-11.9704
ppe	-11.9708
chino	-11.9713
anne	-11.9722
▁williams	-11.9722
▁eg	-11.9722
▁37	-11.9747
▁pei	-11.9758
▁dana	-11.977
acqui	-11.9788
999	-11.9803
▁hallo	-11.9806
ubb	-11.9816
▁runnin	-11.9833
aaaaay	-11.9834
▁heya	-11.9847
1:11	-11.9847
hora	-11.985
_1	-11.9852
dee	-11.9858
▁anythin	-11.9859
asse	-11.9862
info	-11.9863
▁nam	-11.987
▁hou	-11.9879
uary	-11.988
▁mend	-11.9886
▁chant	-11.99
▁yessss	-11.9902
atic	-11.9909
▁gus	-11.9916
even	-11.9921
▁bran	-11.9923
fan	-11.993
randa	-11.9946
▁nooooooooo	-11.9949
▁opt	-11.9965
-9	-11.9965
▁era	-11.998
▁practi	-11.9997
▁fm	-12.0006
▁gin	-12.0011
start	-12.0012
▁addi	-12.0032
nad	-12.0037
▁wav	-12.0053
▁kai	-12.0061
▁redbu	-12.0083
bro	-12.0091
pc	-12.0108
ahhh	-12.0112
hope	-12.0116
▁goooooooo	-12.0118
▁fee	-12.0134
tune	-12.0135
▁vog	-12.0142
▁blahh	-12.0152
▁silver	-12.0178
race	-12.0186
▁plea	-12.0187
▁givin	-12.0187
▁nico	-12.0192
ned	-12.0195
idge	-12.0209
▁chal	-12.0229
hq	-12.0242
▁happ	-12.0258
bell	-12.027
▁merc	-12.0273
tri	-12.0286
bkk	-12.029
iiight	-12.029
stick	-12.0301
seas	-12.0308
annon	-12.0311
▁ewww	-12.0329
▁nothin	-12.0334
▁darlin	-12.0335
▁nee	-12.034
▁appreciat	-12.0346
▁pap	-12.0348
belle	-12.0351
▁nur	-12.0354
▁noooooooo	-12.0354
fest	-12.0372
rase	-12.0374
hal	-12.0383
oria	-12.0384
petit	-12.0393
aloha	-12.0396
▁impro	-12.0414
ught	-12.0418
rte	-12.0429
▁9:	-12.0432
▁kristi	-12.044
▁96	-12.0442
▁arab	-12.0443
hall	-12.0443
▁mcm	-12.0451
hawk	-12.0455
▁41	-12.0458
pea	-12.0463
▁frustra	-12.0478
west	-12.0478
▁yeee	-12.0491
forth	-12.0497
epsi	-12.0504
thank	-12.0505
▁chro	-12.0506
wish	-12.0518
hahahahahahahaha	-12.0522
older	-12.0532
vian	-12.0532
pine	-12.054
think	-12.0542
media	-12.0542
▁soooooooooo	-12.0543
angel	-12.0549
▁celebrat	-12.0551
whisper	-12.0557
quil	-12.056
hayle	-12.0561
▁diggin	-12.0562
polar	-12.0562
tte	-12.0562
smith	-12.0562
▁georg	-12.0562
cullen	-12.0563
▁mwah	-12.0563
plug	-12.0565
muffin	-12.0566
switch	-12.0566
folk	-12.0568
worth	-12.0569
wonder	-12.0569
which	-12.057
stupid	-12.057
damn	-12.0572
bird	-12.0573
write	-12.0573
ierce	-12.0574
usual	-12.0574
music	-12.0574
servi	-12.0574
bug	-12.0575
block	-12.0575
almost	-12.0575
broken	-12.0576
claim	-12.0577
catch	-12.0581
prom	-12.0587
limit	-12.0588
▁horribl	-12.0588
reme	-12.0588
▁glen	-12.059
▁subscri	-12.0591
promis	-12.0592
game	-12.0594
will	-12.0595
wave	-12.0602
▁xxxxxx	-12.0604
▁construct	-12.0608
blo	-12.061
eman	-12.0611
same	-12.0612
renz	-12.0618
▁coffe	-12.0619
update	-12.0621
▁55	-12.0622
ulan	-12.0624
▁goooood	-12.0626
imate	-12.0629
struct	-12.0629
▁breez	-12.063
▁sens	-12.063
▁grub	-12.0631
great	-12.0634
posit	-12.0637
plurk	-12.0637
uzzle	-12.0638
beat	-12.0639
essss	-12.0647
▁insan	-12.0648
much	-12.065
▁virtu	-12.065
mill	-12.0654
tional	-12.0655
▁straw	-12.0655
▁emotion	-12.0657
▁awwwwwww	-12.0661
▁900	-12.0664
doc	-12.0664
coz	-12.0664
▁techno	-12.0669
▁gw	-12.0673
▁cult	-12.0674
bject	-12.0674
rdon	-12.0679
sick	-12.0684
▁yummm	-12.0685
morn	-12.0685
esia	-12.0686
▁wooow	-12.0687
▁shou	-12.0695
jes	-12.0696
▁viol	-12.0699
war	-12.0699
openha	-12.07
▁reflect	-12.07
▁spel	-12.07
▁hehehehe	-12.0701
▁communicat	-12.0701
hirl	-12.0704
ussy	-12.0706
▁hopin	-12.0707
ravel	-12.0707
ior	-12.0707
ummmmm	-12.0708
▁cind	-12.071
▁mak	-12.071
▁gooooood	-12.0711
▁architect	-12.0711
▁hallucinat	-12.0711
▁blockbuster	-12.0711
▁campaign	-12.0711
▁edmonton	-12.0711
▁electro	-12.0711
▁frequent	-12.0711
▁instrument	-12.0711
▁intelligen	-12.0711
▁mgmt	-12.0711
▁mojito	-12.0711
▁occur	-12.0711
▁orthodontis	-12.0711
▁phobia	-12.0711
▁rblpn	-12.0711
▁republic	-12.0711
▁scramble	-12.0711
▁suspicio	-12.0711
▁disagree	-12.0711
▁paparazz	-12.0711
▁prototype	-12.0711
▁concur	-12.0711
▁http	-12.0711
▁sentiment	-12.0711
▁cauz	-12.0711
▁cheerlead	-12.0711
▁mulch	-12.0711
▁nikki	-12.0711
▁orphan	-12.0711
▁conserv	-12.0711
!!!!!!!!!!!!!!!	-12.0711
▁alexander	-12.0711
▁voyage	-12.0711
▁assassin	-12.0711
▁stereo	-12.0711
▁paisley	-12.0711
▁dazzle	-12.0711
▁ignoran	-12.0711
▁raven	-12.0711
▁savv	-12.0711
▁qualify	-12.0711
▁quesadilla	-12.0711
▁birth	-12.0711
▁overheat	-12.0711
▁endorse	-12.0711
anthrop	-12.0711
▁recoup	-12.0711
▁bastard	-12.0711
▁derek	-12.0711
▁discriminat	-12.0711
▁pakistan	-12.0712
▁diploma	-12.0712
▁elvi	-12.0712
▁sympto	-12.0712
▁vocab	-12.0712
▁sunbath	-12.0712
▁vaccin	-12.0712
lllyyy	-12.0712
▁saint	-12.0712
▁hamburg	-12.0712
▁ambien	-12.0712
▁sleeeep	-12.0712
▁ohmygo	-12.0712
▁resort	-12.0712
▁leonard	-12.0712
▁favour	-12.0712
▁hibernat	-12.0712
▁exclusiv	-12.0712
▁ernie	-12.0712
▁threaten	-12.0712
▁racoon	-12.0712
▁eliza	-12.0712
▁intrigu	-12.0712
▁lizzi	-12.0712
▁nigga	-12.0712
▁estimat	-12.0712
fathom	-12.0712
manhatt	-12.0712
▁strategic	-12.0712
▁sulk	-12.0712
▁government	-12.0712
▁luxur	-12.0712
▁jaycee	-12.0713
▁chauffe	-12.0713
▁percent	-12.0713
▁hedge	-12.0713
▁ponder	-12.0713
▁hyde	-12.0713
alibu	-12.0713
▁broadcast	-12.0713
▁libert	-12.0713
▁adjust	-12.0713
▁interweb	-12.0713
▁fubu	-12.0714
▁poison	-12.0714
▁arthrit	-12.0714
▁nazi	-12.0714
▁amazin	-12.0714
▁wasn	-12.0714
▁recharge	-12.0714
▁thur	-12.0714
▁laminat	-12.0714
▁shatn	-12.0714
▁6:1	-12.0714
▁sorrry	-12.0714
▁hosp	-12.0715
▁mojo	-12.0715
▁cliff	-12.0715
inhabit	-12.0715
▁bankrupt	-12.0715
▁132.	-12.0715
▁worship	-12.0716
▁clown	-12.0716
155	-12.0716
▁voda	-12.0716
▁ova	-12.0717
▁bishop	-12.0717
▁7.30	-12.0717
▁4:1	-12.0717
▁teethe	-12.0717
▁spank	-12.0718
▁12:45	-12.0718
mptu	-12.0718
▁haunt	-12.0718
▁domino	-12.0718
▁yaaaaaay	-12.0718
▁shul	-12.0718
**	-12.0719
▁lobby	-12.0719
▁9:30	-12.072
▁athlet	-12.072
▁pku	-12.072
▁twigg	-12.072
▁bubb	-12.0721
▁knott	-12.0721
▁communication	-12.0721
▁niko	-12.0722
▁artwork	-12.0722
▁dreadful	-12.0722
▁discre	-12.0722
▁mlb	-12.0722
▁frag	-12.0723
▁intend	-12.0723
▁reunite	-12.0723
▁foolish	-12.0723
▁gloss	-12.0723
▁joss	-12.0723
▁maxim	-12.0723
▁coool	-12.0724
▁930	-12.0724
iiiiiiiiiiiiiiii	-12.0725
▁hotdog	-12.0725
clutter	-12.0725
▁metre	-12.0725
▁ryg	-12.0725
▁apath	-12.0725
▁import	-12.0725
▁possess	-12.0726
▁reboot	-12.0726
▁tunn	-12.0726
▁scrap	-12.0726
▁academic	-12.0727
▁uuuup	-12.0727
▁brend	-12.0727
▁sowwie	-12.0727
wide	-12.0728
▁flour	-12.0729
▁spear	-12.0729
▁owww	-12.0729
▁catalog	-12.073
sigh	-12.073
▁bacc	-12.073
suit	-12.0731
▁5:00	-12.0731
hav	-12.0731
cule	-12.0732
▁pric	-12.0732
▁lasagn	-12.0732
▁slum	-12.0732
▁confident	-12.0733
▁noooooo	-12.0734
▁crazii	-12.0734
post	-12.0735
▁ahahah	-12.0735
ephant	-12.0735
▁frown	-12.0735
▁jessica	-12.0735
▁malt	-12.0735
▁fcke	-12.0736
▁kash	-12.0736
▁trop	-12.0737
woooo	-12.0739
▁notification	-12.0739
▁goooooood	-12.0739
▁182	-12.0739
▁mitch	-12.0739
▁anoth	-12.0739
▁sumtime	-12.074
▁1500	-12.074
▁bloke	-12.074
▁float	-12.0741
hahahah	-12.0742
▁hysteric	-12.0742
knight	-12.0745
▁euph	-12.0745
met	-12.0745
rios	-12.0745
▁poof	-12.0746
▁meeeee	-12.0747
▁prix	-12.0747
▁bullet	-12.0748
▁530	-12.0748
▁mommie	-12.0749
cup	-12.0749
▁phat	-12.0749
▁calendar	-12.0749
▁heheheheh	-12.0749
known	-12.0749
▁heidi	-12.0749
▁startrek	-12.0749
▁zip	-12.075
▁felt	-12.0751
ensat	-12.0751
cici	-12.0751
▁interact	-12.0751
▁blair	-12.0751
▁whyyyy	-12.0753
▁moron	-12.0754
▁bangin	-12.0754
shame	-12.0755
atlanta	-12.0755
aaawww	-12.0755
▁kansa	-12.0756
stand	-12.0758
▁feast	-12.076
▁fern	-12.0761
▁mcco	-12.0762
▁autis	-12.0762
ril	-12.0764
▁cen	-12.0764
▁accel	-12.0764
▁retain	-12.0765
▁mhm	-12.0766
▁urgent	-12.0766
▁77	-12.0768
▁inventor	-12.0768
▁kean	-12.0769
exter	-12.077
▁330	-12.077
▁wich	-12.0771
▁josi	-12.0772
jun	-12.0772
▁funnie	-12.0774
▁organise	-12.0777
▁hahahahah	-12.078
cular	-12.078
▁gib	-12.0781
▁stace	-12.0784
tribut	-12.0785
▁mk	-12.0787
▁gq	-12.0788
▁alaba	-12.0788
ssey	-12.0789
▁pete	-12.079
▁rawk	-12.079
▁disable	-12.079
▁grubb	-12.0794
nual	-12.0796
gum	-12.0797
▁twitch	-12.0797
▁bam	-12.0797
qood	-12.0798
▁vision	-12.08
▁nga	-12.08
▁ahhhhhhh	-12.0805
▁lite	-12.0809
▁absen	-12.0813
▁zap	-12.0814
▁shield	-12.0815
alog	-12.0815
shit	-12.0815
▁bald	-12.0817
hate	-12.0818
▁2.0	-12.0818
▁candle	-12.0819
final	-12.0822
▁infest	-12.0823
▁bulk	-12.0823
▁prett	-12.0823
▁shorten	-12.0824
▁marco	-12.0824
▁constructi	-12.0824
▁funni	-12.0825
wash	-12.0827
▁musso	-12.083
chat	-12.0831
▁vene	-12.0833
▁retail	-12.0833
▁rebel	-12.0836
▁sesh	-12.0837
▁chow	-12.0838
terbu	-12.084
2:30	-12.0841
▁arse	-12.0841
▁hick	-12.0842
▁beatle	-12.0844
▁ruth	-12.085
sylv	-12.0852
▁peg	-12.0853
▁harbo	-12.0855
▁jimm	-12.0855
rapid	-12.0856
▁mog	-12.0857
▁jc	-12.0857
nap	-12.0859
hill	-12.0859
70	-12.086
▁organi	-12.0861
▁vend	-12.0866
▁woooo	-12.0867
eje	-12.0867
▁heheh	-12.0868
▁sip	-12.0869
trap	-12.087
▁cuzz	-12.0871
▁yuk	-12.0871
▁shoooo	-12.0874
▁tribut	-12.0881
antom	-12.0884
▁limp	-12.0884
▁jenni	-12.0885
▁lynn	-12.0895
▁appart	-12.0898
escen	-12.0902
care	-12.0903
hale	-12.0903
hand	-12.0905
▁seam	-12.0906
▁candid	-12.0907
▁knitt	-12.0907
eeeeeeeeeeeeee	-12.0907
▁arth	-12.0909
rsion	-12.091
isco	-12.0912
▁encor	-12.0916
▁chock	-12.092
▁hahahahahaha	-12.092
▁fifty	-12.0922
▁aaa	-12.0924
▁grind	-12.0925
▁cna	-12.0926
fair	-12.0926
▁cynic	-12.0931
▁camer	-12.0931
quit	-12.0932
▁intel	-12.0933
ua	-12.0933
▁comple	-12.0934
▁grave	-12.0935
▁muck	-12.0935
▁jew	-12.0938
▁8-	-12.0939
▁brewer	-12.0939
▁sbs	-12.0939
rrent	-12.094
ulous	-12.094
▁kos	-12.0941
▁embar	-12.0944
▁youuu	-12.0949
▁hmmp	-12.0951
▁medit	-12.0951
▁kirst	-12.0953
litter	-12.0955
ual	-12.0956
▁influ	-12.0962
▁creeper	-12.0964
▁santi	-12.0965
▁decr	-12.0968
▁buckle	-12.0971
warm	-12.0977
▁6/	-12.0978
▁cavi	-12.0979
▁racis	-12.0981
thic	-12.0982
penci	-12.0982
▁cera	-12.0985
cree	-12.0985
▁shh	-12.0988
▁huaaaa	-12.0995
▁lanc	-12.0998
▁01	-12.0998
limp	-12.1002
▁volu	-12.1004
▁carnival	-12.1022
▁jeans	-12.1024
▁revising	-12.1024
▁yan	-12.1027
▁mop	-12.1028
▁manic	-12.103
▁prime	-12.1033
▁boog	-12.1035
gina	-12.1036
marke	-12.1038
▁elm	-12.1039
▁comme	-12.1045
stopp	-12.1051
▁secure	-12.1057
▁determine	-12.1057
▁gwe	-12.106
icial	-12.1063
▁04	-12.1064
▁cashi	-12.1069
▁bom	-12.107
▁rene	-12.1079
▁laaa	-12.108
▁giv	-12.1084
gger	-12.1086
▁dep	-12.1087
▁47	-12.1089
▁upper	-12.1094
▁boyz	-12.1098
.15	-12.1107
that	-12.1109
ugggh	-12.111
▁wher	-12.1112
lize	-12.1112
ylan	-12.1113
▁bandw	-12.1115
▁voe	-12.1121
▁kir	-12.1127
lynn	-12.1131
erling	-12.1132
pez	-12.1133
hot	-12.1135
lence	-12.1137
lay	-12.1143
inja	-12.1148
kz	-12.1151
▁fuss	-12.1152
▁lance	-12.1171
lter	-12.1174
isban	-12.1184
▁kur	-12.1185
tcha	-12.1187
▁rod	-12.1189
eleg	-12.1196
▁kiddo	-12.12
lemm	-12.1205
▁etern	-12.1211
▁crap	-12.1217
▁dunn	-12.1218
▁lem	-12.1219
gment	-12.1222
▁shld	-12.1222
▁marta	-12.1225
▁slep	-12.1226
▁jill	-12.1231
▁roller	-12.1232
sound	-12.1254
nip	-12.1258
cla	-12.126
best	-12.1262
▁lenn	-12.1264
limina	-12.1268
aaaaaaaaaaaaaa	-12.1269
▁dil	-12.1274
▁silverst	-12.1275
▁titani	-12.1276
rainbow	-12.128
▁fantas	-12.1305
▁came	-12.1316
▁forreal	-12.1324
isi	-12.1327
▁cale	-12.133
▁suz	-12.1338
▁whoot	-12.1346
▁aquat	-12.1347
yyyyyyyy	-12.1348
▁werd	-12.1349
dar	-12.1363
jay	-12.1364
▁garb	-12.1367
▁consi	-12.1371
▁rex	-12.1371
▁acs	-12.1376
plane	-12.1392
▁conno	-12.1396
van	-12.1399
▁dealer	-12.14
▁dive	-12.1407
mine	-12.1407
▁coming	-12.1415
rantee	-12.1417
▁abc	-12.1422
▁disast	-12.1425
▁lice	-12.1426
match	-12.1429
▁dru	-12.1438
▁jac	-12.1438
▁tam	-12.1441
zze	-12.1452
▁hii	-12.1452
34	-12.1466
▁tame	-12.1467
▁twiter	-12.1472
plicit	-12.1475
▁litt	-12.1477
▁grabe	-12.148
//	-12.1501
▁atmo	-12.1501
cultural	-12.1505
2.7	-12.1509
vor	-12.1511
▁summar	-12.1511
ote	-12.1521
▁nichol	-12.1533
▁partyin	-12.1536
▁cole	-12.1542
▁unity	-12.1544
66	-12.1552
▁operat	-12.1554
▁sen	-12.1566
▁kra	-12.1571
▁quest	-12.1576
▁creatur	-12.1592
icker	-12.1603
▁skinn	-12.1605
▁pod	-12.161
▁angr	-12.1625
ava	-12.1626
▁nois	-12.1628
▁wern	-12.1631
▁sic	-12.164
▁bale	-12.164
▁shawn	-12.1641
▁11:1	-12.166
eroni	-12.1666
oooooooooooooo	-12.1683
anny	-12.1687
brace	-12.1689
raffe	-12.1692
▁pinky	-12.1697
exic	-12.1704
they	-12.1706
▁shy	-12.1709
▁mug	-12.1713
llllll	-12.1726
ijin	-12.1734
▁lng	-12.1736
▁formal	-12.1737
▁harv	-12.1737
▁whaaaa	-12.1739
▁exc	-12.174
eeeep	-12.1751
efit	-12.176
▁tub	-12.1763
▁witch	-12.1763
▁pend	-12.1773
kc	-12.1785
musi	-12.1785
tickle	-12.1801
▁wai	-12.1801
▁pier	-12.1802
ristal	-12.1817
▁reme	-12.1831
▁diy	-12.1832
racle	-12.1837
▁mentalit	-12.1844
soo	-12.1844
▁crate	-12.1845
▁conce	-12.1854
charley	-12.1854
rocio	-12.186
▁von	-12.1864
1.0	-12.1866
▁hurtin	-12.1874
▁okie	-12.1884
elope	-12.1889
▁clubb	-12.1911
ural	-12.1918
▁dale	-12.1935
song	-12.1935
▁sparkl	-12.194
them	-12.1942
chik	-12.1943
▁broth	-12.1948
▁miser	-12.195
▁tria	-12.195
gae	-12.1955
▁jd	-12.1973
anticipate	-12.198
▁kal	-12.1982
▁ventur	-12.1989
rva	-12.1997
▁bui	-12.1999
urse	-12.201
▁fishy	-12.2013
▁ef	-12.2015
later	-12.2032
▁hammo	-12.2038
▁chale	-12.2045
▁kw	-12.2051
lohan	-12.2072
ribb	-12.2079
▁mysterio	-12.2083
pare	-12.2092
▁lollll	-12.2096
▁rele	-12.2098
▁chic	-12.2108
▁bry	-12.211
▁states	-12.211
yyyyyyyyyyy	-12.2121
▁jala	-12.2132
sssss	-12.2134
ump	-12.2149
▁loooooo	-12.2157
iza	-12.2164
▁jip	-12.2164
▁rust	-12.2165
ascar	-12.218
▁fanta	-12.2185
▁cath	-12.2188
cent	-12.2189
yyyyyyyyyyyyy	-12.2191
▁jel	-12.2205
▁bikin	-12.2223
ashim	-12.2223
▁psy	-12.2223
luff	-12.223
hook	-12.2271
▁garl	-12.2271
▁tent	-12.2283
ensible	-12.2331
▁haaaa	-12.2336
▁maz	-12.2337
scc	-12.2346
▁tish	-12.2354
▁skit	-12.2375
▁daaaaa	-12.2403
▁gabb	-12.2408
lab	-12.2421
redi	-12.2424
▁garn	-12.2435
▁lei	-12.2439
▁jell	-12.2444
▁trait	-12.2444
▁geee	-12.2444
▁endea	-12.2452
ovan	-12.2453
▁batt	-12.2474
▁compa	-12.2507
▁rus	-12.2509
brin	-12.2538
ingto	-12.2549
nter	-12.2549
rangle	-12.2552
iya	-12.2568
▁panc	-12.2576
▁recycl	-12.2589
▁dez	-12.2599
▁tata	-12.2615
▁kart	-12.264
▁twitta	-12.2644
▁organize	-12.2656
▁uuu	-12.2663
lik	-12.2664
▁terri	-12.2666
▁bris	-12.2687
oll	-12.2697
pppp	-12.2698
▁audioboo	-12.2703
rag	-12.2711
▁6:4	-12.2721
nick	-12.274
test	-12.2743
bang	-12.2749
ohoo	-12.2756
sley	-12.2757
▁hamp	-12.276
ania	-12.2768
wweee	-12.2776
▁moni	-12.278
▁sucksss	-12.2788
cra	-12.2791
ark	-12.2804
▁grea	-12.2816
bridge	-12.2826
300	-12.2829
▁basi	-12.2863
tiful	-12.2865
▁rosa	-12.287
▁garr	-12.2885
esss	-12.2886
▁cola	-12.2896
▁lala	-12.2913
▁wowz	-12.2929
▁funnn	-12.2961
▁lalala	-12.2972
▁blooming	-12.2993
▁fucc	-12.3003
▁eng	-12.3022
dem	-12.3049
▁stef	-12.3057
▁recogn	-12.3062
▁ceas	-12.3074
▁lmfaoo	-12.309
▁partie	-12.3171
acca	-12.3181
▁gmt	-12.3195
rik	-12.3221
▁cait	-12.3221
nal	-12.3223
▁debb	-12.3228
ritas	-12.3238
▁gooooooooo	-12.3243
alize	-12.3251
actica	-12.3271
▁miz	-12.3318
liss	-12.3336
inda	-12.3347
▁chevr	-12.3364
vim	-12.3378
uuuut	-12.3383
aki	-12.3388
▁tang	-12.3421
lthy	-12.3446
▁dim	-12.3473
rning	-12.3478
▁jor	-12.3507
pid	-12.3525
bber	-12.3525
waaaah	-12.353
▁octop	-12.3554
rest	-12.3582
▁gaah	-12.3617
▁haaa	-12.3627
webca	-12.3644
▁spi	-12.3657
ichi	-12.3657
▁trav	-12.3689
▁pov	-12.3695
▁unpa	-12.3698
▁cld	-12.3698
ida	-12.3708
oise	-12.3719
onto	-12.3721
bean	-12.3733
hog	-12.3762
eller	-12.377
▁marine	-12.3779
▁midge	-12.3784
▁lapit	-12.3797
▁sensib	-12.3801
lock	-12.3804
anky	-12.3814
▁robb	-12.3823
▁10:	-12.3842
bru	-12.3843
holm	-12.3848
dont	-12.3857
▁rf	-12.3867
rrrrrrr	-12.3872
▁firt	-12.3929
lip	-12.3953
▁kell	-12.3957
▁laz	-12.3961
68	-12.3966
▁durin	-12.4007
olve	-12.4023
▁wld	-12.4024
▁sacri	-12.403
hawke	-12.4033
▁smok	-12.4034
▁everrr	-12.4041
bella	-12.4042
▁bien	-12.4056
hhhhhhhhhhh	-12.4093
mpi	-12.4111
athan	-12.4111
▁apologi	-12.4143
pot	-12.4144
garet	-12.4169
wai	-12.4171
▁uuuu	-12.4171
pray	-12.4186
▁sparkle	-12.4195
▁spr	-12.4206
writers	-12.4217
03	-12.4218
arta	-12.4221
▁whaaa	-12.4234
plode	-12.4243
▁yessssss	-12.4246
▁shitt	-12.4253
69	-12.428
ause	-12.428
▁mir	-12.4298
aaaay	-12.4312
4.8	-12.4323
toma	-12.4329
eeddd	-12.4342
▁gir	-12.4364
oze	-12.4374
ahaha	-12.4381
gun	-12.4381
ulga	-12.4404
mput	-12.4419
flake	-12.4424
▁renta	-12.4424
▁ccn	-12.4428
cribe	-12.4434
gloo	-12.4461
iscu	-12.4465
hhhh	-12.4465
effin	-12.4466
06	-12.447
oldie	-12.4491
▁drivin	-12.4505
▁jessi	-12.4508
▁juli	-12.451
▁misha	-12.4513
aaaaaaaaaaaaa	-12.4515
rox	-12.4516
migran	-12.4529
▁rawr	-12.4589
rawl	-12.4597
▁waaaa	-12.4601
▁challeng	-12.4619
mute	-12.4624
▁confusin	-12.4639
▁coll	-12.4667
▁psycho	-12.4679
phic	-12.4685
▁7.5	-12.4692
▁trac	-12.4721
▁shru	-12.4742
▁jok	-12.4747
fic	-12.4755
▁dedicat	-12.4764
esta	-12.4765
saki	-12.4786
▁arrg	-12.4792
hoooo	-12.4804
lang	-12.4808
bbo	-12.4814
nob	-12.4821
gnific	-12.4825
▁waterf	-12.483
▁parac	-12.483
ography	-12.4855
urant	-12.4855
▁yooo	-12.4858
ckle	-12.4861
▁jaj	-12.4867
▁trekki	-12.4882
asco	-12.4884
▁tita	-12.4918
▁oreg	-12.4932
▁greeeee	-12.4941
illian	-12.4942
attt	-12.4947
▁trauma	-12.4954
▁naww	-12.4956
▁whisk	-12.4957
▁swi	-12.4957
moo	-12.4984
81	-12.4995
fk	-12.5006
▁lmfa	-12.5019
cad	-12.5026
▁fic	-12.5033
▁xma	-12.5036
▁vari	-12.5051
open	-12.5059
▁offic	-12.5067
mania	-12.5093
▁1.1	-12.5102
jama	-12.5106
lsat	-12.5106
▁pleee	-12.5118
▁1:	-12.512
▁congratulat	-12.5122
tara	-12.5122
pos	-12.5129
robe	-12.5136
stat	-12.5137
jab	-12.514
bec	-12.5166
▁prep	-12.5174
kend	-12.5182
max	-12.5183
via	-12.5211
stor	-12.5219
xxxxxxxxxxxxxxxx	-12.5236
▁prote	-12.5237
▁niii	-12.5259
rrrrrrrrr	-12.5261
▁barb	-12.5262
▁hugg	-12.5277
▁smug	-12.5277
▁parc	-12.5289
▁uggg	-12.53
▁brea	-12.5301
▁unho	-12.531
rggghhh	-12.5313
▁thanxx	-12.532
bara	-12.5321
mvc	-12.5323
▁jap	-12.5338
▁prior	-12.5342
▁prepar	-12.5344
▁edu	-12.5344
▁yaaaaaaa	-12.5345
▁heeee	-12.5353
▁ceme	-12.5365
▁iloveyo	-12.5378
▁yeeeee	-12.5386
cab	-12.5388
▁distra	-12.5393
▁quas	-12.5412
mag	-12.5418
▁squi	-12.5422
crucia	-12.5431
2:	-12.5446
hugs	-12.5447
him	-12.5448
▁representati	-12.545
app	-12.5468
ooooddd	-12.5469
▁feli	-12.547
▁yooooooo	-12.5473
▁booooooo	-12.5475
▁shak	-12.5477
liam	-12.5479
▁chol	-12.5485
haaa	-12.5486
incident	-12.5494
aaaaaaaahhhh	-12.5509
writer	-12.5512
▁nun	-12.5513
▁girrr	-12.5514
▁raf	-12.5516
hour	-12.5522
locate	-12.5527
repli	-12.5527
33333	-12.5529
sabi	-12.5532
▁jammin	-12.5533
uggh	-12.5534
keep	-12.5541
organize	-12.5541
kaka	-12.5542
2.0	-12.5543
▁rou	-12.5544
shield	-12.5544
▁technic	-12.5544
connect	-12.5549
cracker	-12.5551
cinc	-12.5552
broke	-12.5554
▁82	-12.5555
baker	-12.5556
infect	-12.5556
arrange	-12.5556
gadget	-12.5556
wall	-12.5557
disk	-12.5557
worm	-12.5558
900	-12.5558
rebel	-12.5559
roger	-12.5559
destroy	-12.5559
pleasant	-12.5559
wreck	-12.5561
tramp	-12.5561
anxi	-12.5561
▁babysit	-12.5562
▁woooooo	-12.5562
robert	-12.5562
jazz	-12.5562
▁awesom	-12.5563
subscribe	-12.5563
curve	-12.5563
sauce	-12.5566
jeff	-12.5566
wrap	-12.5567
steak	-12.5567
productive	-12.5568
hmmm	-12.5568
micro	-12.5568
buzz	-12.5569
continu	-12.5569
shell	-12.5569
double	-12.5569
group	-12.557
sugar	-12.557
street	-12.557
blue	-12.5571
tooth	-12.5571
internet	-12.5571
availab	-12.5571
picture	-12.5571
official	-12.5571
second	-12.5571
▁haaha	-12.5571
people	-12.5571
when	-12.5572
drop	-12.5572
treat	-12.5573
foot	-12.5574
▁baaaaaaaa	-12.5574
txt	-12.5574
lunch	-12.5575
broad	-12.5575
peep	-12.5575
why	-12.5575
cook	-12.5575
daily	-12.5577
barb	-12.5577
champ	-12.5577
craft	-12.5577
hannah	-12.5578
sorry	-12.5578
101	-12.5578
personal	-12.5578
half	-12.5581
wife	-12.5582
bump	-12.5582
hanna	-12.5583
finger	-12.5584
awful	-12.5584
total	-12.5585
million	-12.5585
would	-12.5585
msg	-12.5587
▁plzz	-12.5588
storm	-12.5591
▁everyoneeeee	-12.5591
shut	-12.5591
▁aaaaaaaaaa	-12.5595
voice	-12.5596
▁advertis	-12.5596
▁pag	-12.5596
woo	-12.5597
healthy	-12.5599
instruct	-12.5601
dead	-12.5602
stock	-12.5602
chuck	-12.5604
▁clog	-12.5608
factor	-12.5608
yeah	-12.5611
queen	-12.5611
fight	-12.5611
▁desperat	-12.5612
aust	-12.5612
▁config	-12.5614
marie	-12.5614
▁extrem	-12.5614
excite	-12.5615
lady	-12.5618
hurt	-12.5618
▁productiv	-12.5618
▁pictur	-12.562
lotte	-12.562
still	-12.562
justin	-12.563
gento	-12.5634
▁confess	-12.5636
about	-12.5636
gear	-12.5637
▁embarras	-12.5638
▁evr	-12.5641
▁lili	-12.5641
hamp	-12.5643
▁alread	-12.5645
qh	-12.5646
llllllllllllll	-12.5652
mmat	-12.5652
topic	-12.5653
wow	-12.5656
▁lok	-12.5656
gov	-12.5657
▁knowww	-12.5657
stresse	-12.566
▁helloooo	-12.5661
▁frida	-12.5662
▁profession	-12.5664
mbo	-12.5666
fact	-12.5667
▁tabl	-12.5668
▁crow	-12.5672
▁borin	-12.5675
▁dyna	-12.5678
weeks	-12.5679
▁bamb	-12.5679
▁73	-12.568
▁confiden	-12.5681
kkkkk	-12.5681
tification	-12.5681
slip	-12.5684
▁quie	-12.5684
▁peac	-12.5685
sip	-12.5686
▁swin	-12.5686
▁tonigh	-12.5687
arch	-12.5687
▁110	-12.5688
oouu	-12.569
iron	-12.5692
letter	-12.5696
▁whatev	-12.5697
blesse	-12.5699
▁retard	-12.5699
rior	-12.5699
constru	-12.57
▁carro	-12.57
▁rai	-12.5702
▁aaaw	-12.5703
iqht	-12.5706
▁snugg	-12.5706
▁albe	-12.5706
ahhhh	-12.5706
▁todayyyyyy	-12.5707
▁snif	-12.5708
ountain	-12.5708
nspira	-12.5708
strict	-12.5709
valent	-12.5709
▁brid	-12.5709
▁strateg	-12.5709
ustria	-12.571
preciate	-12.571
bsesse	-12.571
tinct	-12.571
ustrate	-12.571
▁5.3	-12.5711
▁critic	-12.5711
▁techni	-12.5711
rrespon	-12.5711
▁accomp	-12.5711
vvveee	-12.5711
:56	-12.5711
▁abbreviat	-12.5711
▁affiliat	-12.5711
▁alhamdulil	-12.5711
▁defunct	-12.5711
▁geocaching	-12.5711
▁pllleeeaaass	-12.5711
▁zemote	-12.5711
adequate	-12.5711
▁civilizati	-12.5711
▁diagnos	-12.5711
▁dissapear	-12.5711
▁enchilad	-12.5711
▁excedrin	-12.5711
▁fracture	-12.5711
▁genuine	-12.5711
▁lautner	-12.5711
▁misunderst	-12.5711
▁moisturi	-12.5711
▁nigguh	-12.5711
▁optimiz	-12.5711
▁quirk	-12.5711
▁reluctant	-12.5711
▁rollerblad	-12.5711
▁significant	-12.5711
▁slurpee	-12.5711
▁tremendous	-12.5711
▁troubleshoot	-12.5711
▁unbelievabl	-12.5711
▁wikileak	-12.5711
▁gourmet	-12.5711
▁immense	-12.5711
▁murphy	-12.5711
:55	-12.5711
kalebnation	-12.5711
▁analytic	-12.5711
▁blatant	-12.5711
▁casual	-12.5711
▁counsel	-12.5711
▁crumpin	-12.5711
▁dayuumm	-12.5711
▁depeche	-12.5711
▁enlighten	-12.5711
▁haciend	-12.5711
▁moleskine	-12.5711
▁spontane	-12.5711
_08	-12.5711
▁omnom	-12.5711
▁stimul	-12.5711
▁succu	-12.5711
▁twilightguy	-12.5711
talkradio	-12.5711
▁congrad	-12.5711
▁frighten	-12.5711
▁lovelovelove	-12.5711
▁subconsci	-12.5711
pattinson	-12.5711
▁gangsterrr	-12.5711
▁lurvee	-12.5711
▁metaverse	-12.5711
▁stooopi	-12.5711
▁nostalgi	-12.5711
▁schuh	-12.5711
goraph	-12.5711
▁pffffffffff	-12.5711
▁skunk	-12.5711
▁christoph	-12.5711
▁degener	-12.5711
▁ethnic	-12.5711
▁obnoxious	-12.5711
▁hawthorn	-12.5711
quisit	-12.5711
conditon	-12.5711
▁symphon	-12.5711
▁telescop	-12.5711
▁quid	-12.5711
▁broccol	-12.5711
▁sheeeeit	-12.5711
astronom	-12.5711
:57	-12.5711
▁3/4	-12.5711
▁evaluat	-12.5711
▁irritat	-12.5711
▁execut	-12.5711
▁yippie	-12.5711
tynisha	-12.5711
▁masseus	-12.5711
▁overjoy	-12.5711
▁inshalla	-12.5711
▁revit	-12.5711
▁unanswere	-12.5712
▁meadow	-12.5712
▁sliver	-12.5712
▁spiritual	-12.5712
▁yoooouuu	-12.5712
▁maniac	-12.5712
▁implement	-12.5712
lllpppp	-12.5712
▁krauss	-12.5712
▁0407	-12.5712
nnnnnnnn	-12.5712
▁biatch	-12.5712
ranjan	-12.5712
▁persist	-12.5712
▁rrod	-12.5712
▁kamu	-12.5712
▁crystal	-12.5712
▁husk	-12.5712
▁gareth	-12.5712
uirre	-12.5712
▁gerbi	-12.5712
▁slutt	-12.5712
▁afgan	-12.5712
▁kraut	-12.5712
▁auction	-12.5712
▁enthu	-12.5712
uuuggghh	-12.5712
reserve	-12.5712
▁abuel	-12.5712
:46	-12.5712
▁bronco	-12.5712
▁aaarrrggg	-12.5712
▁compete	-12.5712
▁alicia	-12.5712
▁yeeh	-12.5712
▁qualifie	-12.5712
▁unfortu	-12.5712
▁hydr	-12.5712
▁mercede	-12.5712
▁fllw	-12.5712
▁krystle	-12.5713
▁matern	-12.5713
sososo	-12.5713
▁anchor	-12.5713
▁method	-12.5713
▁furbab	-12.5713
inside	-12.5713
▁tequil	-12.5713
▁fibro	-12.5713
▁squish	-12.5713
▁hahahahahahaha	-12.5713
▁preserv	-12.5713
overheard	-12.5713
▁bapti	-12.5713
▁profound	-12.5713
▁preacher	-12.5713
▁uncontrol	-12.5713
▁mtb	-12.5713
▁nutritio	-12.5713
▁morgen	-12.5713
▁siberia	-12.5713
▁mutha	-12.5713
▁reaaaall	-12.5713
kkkkkkk	-12.5714
▁7:5	-12.5714
▁forbid	-12.5714
▁righ	-12.5714
▁vomit	-12.5714
▁bahama	-12.5714
▁blackhawk	-12.5714
▁vwll	-12.5714
▁spike	-12.5714
▁xml	-12.5714
mmmmmme	-12.5714
▁marjo	-12.5714
▁muhahaha	-12.5714
▁harrass	-12.5714
▁wra	-12.5714
:06	-12.5714
▁sleeeeeeep	-12.5714
step	-12.5714
▁dominic	-12.5715
quot	-12.5715
picnik	-12.5715
▁krys	-12.5715
▁jemi	-12.5715
aaannn	-12.5715
▁notorious	-12.5715
hhhhhhhhhhhhhhhh	-12.5715
clare	-12.5715
▁klein	-12.5715
▁ladybug	-12.5715
swere	-12.5715
agressiv	-12.5715
▁lewis	-12.5715
flex	-12.5715
▁constitu	-12.5715
▁religio	-12.5715
▁bludge	-12.5715
▁splash	-12.5715
▁jenkin	-12.5716
▁bazillion	-12.5716
▁incline	-12.5716
▁bwahahahaha	-12.5716
▁goooooodmor	-12.5716
bbbb	-12.5716
▁commod	-12.5716
▁lainey	-12.5716
▁bloss	-12.5716
▁wookie	-12.5716
▁eclect	-12.5716
▁236	-12.5716
▁leuk	-12.5716
:35	-12.5716
▁sukk	-12.5716
:07	-12.5716
▁extinct	-12.5716
njam	-12.5716
irlanda	-12.5717
▁milita	-12.5717
uket	-12.5717
▁05/3	-12.5717
▁arbit	-12.5717
▁luncheon	-12.5717
▁unlock	-12.5717
▁duuuu	-12.5717
▁awwwwwwwwww	-12.5717
▁hungary	-12.5717
▁disband	-12.5717
▁baad	-12.5718
▁interupt	-12.5718
fletch	-12.5718
▁skankin	-12.5718
mmun	-12.5718
▁calcu	-12.5718
▁banner	-12.5719
▁correspond	-12.5719
▁swel	-12.5719
▁braun	-12.5719
▁chrissy	-12.5719
pract	-12.5719
▁grue	-12.5719
▁vlog	-12.5719
▁observation	-12.5719
▁xxxxxxxx	-12.5719
446	-12.5719
▁debug	-12.5719
▁tassi	-12.5719
▁cram	-12.5719
huah	-12.5719
▁detect	-12.5719
lodge	-12.5719
▁fonz	-12.5719
▁unsal	-12.5719
▁insight	-12.572
▁efficient	-12.572
▁tiiiiii	-12.572
▁harper	-12.572
▁hahahahahahha	-12.572
▁brickman	-12.572
▁hokey	-12.572
▁comix	-12.572
▁3:1	-12.572
▁defici	-12.572
▁intrusi	-12.5721
▁mandari	-12.5721
!:	-12.5721
▁destin	-12.5721
/31	-12.5721
▁scarlet	-12.5721
▁critical	-12.5721
▁avoc	-12.5721
▁energize	-12.5722
▁nigh	-12.5722
▁grouch	-12.5722
▁pleb	-12.5722
:38	-12.5722
▁pleaseeeeee	-12.5722
▁ellip	-12.5722
▁wolv	-12.5723
▁aggre	-12.5723
/201	-12.5723
▁dynamic	-12.5723
▁hooora	-12.5724
▁precede	-12.5724
▁netbook	-12.5724
▁geord	-12.5724
shower	-12.5724
▁precise	-12.5724
▁xoxoxo	-12.5724
▁faint	-12.5724
▁9:45	-12.5724
▁reviv	-12.5724
807	-12.5725
▁rebellio	-12.5725
▁canvas	-12.5725
▁reopen	-12.5726
▁tipsy	-12.5726
▁8.00	-12.5726
▁kami	-12.5726
ograph	-12.5726
▁nicc	-12.5727
▁accus	-12.5727
▁rico	-12.5727
▁maaaan	-12.5727
▁heyheyhey	-12.5727
▁shuck	-12.5727
etamo	-12.5727
▁custod	-12.5728
crepe	-12.5728
▁valentino	-12.5728
▁contro	-12.5728
▁langu	-12.5728
▁linger	-12.5728
▁blogher	-12.5729
▁photowalk	-12.5729
▁reflection	-12.5729
eeeeeassseee	-12.5729
▁collin	-12.573
ifty	-12.573
▁interven	-12.573
▁reef	-12.5731
▁maternal	-12.5731
▁edw	-12.5731
▁sicc	-12.5731
▁flw	-12.5731
▁10.5	-12.5731
▁tickettttt	-12.5732
▁naturally	-12.5732
▁5.30	-12.5732
▁jool	-12.5733
▁mcken	-12.5733
might	-12.5733
▁evernote	-12.5733
▁commerc	-12.5733
▁admin	-12.5733
▁pedd	-12.5733
▁mika	-12.5734
▁owwie	-12.5734
hop	-12.5734
▁cobble	-12.5734
▁paperback	-12.5734
▁panther	-12.5735
▁thaank	-12.5735
▁frak	-12.5735
pla	-12.5735
▁approx	-12.5735
▁uglie	-12.5735
▁euh	-12.5735
▁shiv	-12.5736
▁unrel	-12.5736
▁naku	-12.5736
▁inflam	-12.5737
raq	-12.5737
▁erock	-12.5737
▁babi	-12.5737
▁abid	-12.5738
▁4.50	-12.5738
▁aspir	-12.5739
▁judgement	-12.5739
▁muffle	-12.574
▁parlo	-12.574
cumul	-12.574
.02	-12.574
▁scra	-12.574
-****-	-12.5741
▁brag	-12.5741
▁afterparty	-12.5741
▁gahhh	-12.5742
▁stephan	-12.5743
▁yuuu	-12.5743
▁prun	-12.5744
▁guap	-12.5745
▁tuc	-12.5746
▁xbl	-12.5746
.22	-12.5747
zzi	-12.5748
▁cheerio	-12.5748
▁shreddi	-12.5748
▁flaw	-12.5749
obic	-12.5749
▁strud	-12.5749
▁shiii	-12.5749
cardi	-12.5749
ashed	-12.5749
▁kung	-12.575
▁minneso	-12.575
▁freu	-12.575
▁lexi	-12.575
▁shwa	-12.575
▁dissappoint	-12.575
▁stella	-12.5751
▁pika	-12.5752
▁snoop	-12.5753
▁heav	-12.5753
aaaaggg	-12.5753
▁smoo	-12.5753
▁hyperven	-12.5753
▁lucia	-12.5754
▁shortcake	-12.5754
▁forbidden	-12.5754
saud	-12.5755
▁groove	-12.5756
▁splint	-12.5756
▁kayak	-12.5756
▁provo	-12.5757
▁ammo	-12.5757
▁elite	-12.5757
ican	-12.5758
▁lamp	-12.5759
▁violate	-12.5759
▁rapp	-12.5759
▁306	-12.576
▁hoover	-12.576
687	-12.576
▁barak	-12.5761
▁xxo	-12.5762
▁awwwwww	-12.5762
:'	-12.5763
▁feliz	-12.5763
▁huff	-12.5763
firewall	-12.5764
▁mack	-12.5765
▁alki	-12.5765
▁arcad	-12.5766
▁miri	-12.5766
jojo	-12.5767
▁tayl	-12.5768
▁feck	-12.5768
ggghhhh	-12.5768
▁tenen	-12.5768
▁1:30	-12.5769
miracle	-12.577
▁isabel	-12.5772
rillia	-12.5772
aaaaaan	-12.5772
iscons	-12.5773
jar	-12.5773
arine	-12.5774
▁huhu	-12.5774
lllllllllllllll	-12.5774
▁hihi	-12.5775
▁4:45	-12.5775
ooommm	-12.5775
teria	-12.5775
▁101	-12.5775
▁racist	-12.5777
▁sensitiv	-12.578
▁occup	-12.578
▁chief	-12.578
▁depriv	-12.578
▁22.9	-12.5781
▁taff	-12.5782
▁cinder	-12.5783
▁darnit	-12.5784
▁sche	-12.5784
▁remark	-12.5785
hiiiiii	-12.5786
▁ganda	-12.5788
▁heyyyyy	-12.5789
▁suf	-12.5789
▁obv	-12.5789
▁mickey	-12.5789
claren	-12.5789
4.3	-12.579
cheshire	-12.579
▁2.30	-12.5791
royal	-12.5791
▁5/2	-12.5792
▁narn	-12.5792
▁orbi	-12.5792
▁feeeeee	-12.5793
therland	-12.5794
▁happppp	-12.5796
▁peol	-12.5796
▁rake	-12.5797
▁whaat	-12.5797
▁repre	-12.5798
stu	-12.5798
▁borg	-12.5799
▁bryant	-12.5799
▁utd	-12.5799
▁crowdsourc	-12.5799
▁103	-12.58
▁appeti	-12.58
▁grandad	-12.58
▁marsh	-12.5802
russel	-12.5802
▁fabre	-12.5803
ssive	-12.5803
titask	-12.5804
fessional	-12.5805
▁finsh	-12.5805
▁lew	-12.5805
lukas	-12.5807
rekki	-12.5807
▁tinker	-12.581
▁moral	-12.5811
rbon	-12.5811
mess	-12.5813
▁chk	-12.5813
▁lust	-12.5814
▁eco	-12.5815
▁clint	-12.5816
▁inconvenien	-12.5818
▁probabil	-12.5823
▁valeri	-12.5825
▁zum	-12.5826
▁0_	-12.5826
▁suuu	-12.5827
▁leon	-12.5827
▁prox	-12.583
▁iloveyout	-12.583
▁omeg	-12.583
▁pleea	-12.5831
▁zw	-12.5831
▁hagg	-12.5832
▁manicur	-12.5832
▁fitz	-12.5832
▁sweeeee	-12.5833
▁appar	-12.5833
▁advertise	-12.5834
▁confuzz	-12.5834
▁reallllllll	-12.5835
▁chaser	-12.5837
▁128	-12.5837
▁cathy	-12.5837
wwwwweeee	-12.5838
urnal	-12.5838
▁mild	-12.584
intrude	-12.584
▁televis	-12.584
▁mccar	-12.5841
again	-12.5841
▁pleeez	-12.5842
▁koh	-12.5842
grace	-12.5842
▁noct	-12.5845
▁pointless	-12.5845
▁skim	-12.5846
▁cloggin	-12.5847
▁shezz	-12.5847
▁paintballin	-12.5848
▁overrate	-12.5848
▁panga	-12.5852
▁jv	-12.5856
▁rig	-12.5856
aaaat	-12.5856
▁sooooooooo	-12.5857
▁mander	-12.5858
▁lynd	-12.5859
▁cric	-12.586
▁whyyy	-12.586
▁backorder	-12.5861
▁persia	-12.5863
▁caffi	-12.5864
ntelle	-12.5865
aulk	-12.5865
345	-12.5867
▁russ	-12.5867
ffy	-12.5868
versi	-12.5868
▁kaya	-12.587
▁trivi	-12.5872
▁unix	-12.5874
▁crust	-12.5876
▁gala	-12.5877
▁chel	-12.5878
▁105	-12.5878
▁ebt	-12.5881
▁underpa	-12.5881
▁coul	-12.5882
▁outdoor	-12.5882
▁didnt	-12.5884
inki	-12.5884
ument	-12.5885
▁uggh	-12.5885
azar	-12.5886
mex	-12.5886
▁leo	-12.5888
▁mkt	-12.5889
iiiin	-12.5891
▁perf	-12.5891
hittin	-12.5892
▁amish	-12.5895
▁winning	-12.5899
▁owen	-12.5899
▁lighten	-12.59
▁locate	-12.5901
▁taho	-12.5903
▁sabi	-12.5903
▁produc	-12.5904
▁kaka	-12.5907
▁vw	-12.5908
▁superb	-12.591
▁abso	-12.591
▁33333	-12.5911
▁squea	-12.5912
▁rhin	-12.5913
▁breeze	-12.5913
rrreeee	-12.5915
▁supr	-12.5918
▁yul	-12.5921
▁dummy	-12.5921
▁roc	-12.5921
▁4.5	-12.5922
nnnnddd	-12.5922
▁amf	-12.5923
▁brok	-12.5924
▁refer	-12.5925
▁whaaaaaa	-12.5927
▁suckss	-12.5927
arley	-12.5928
rrtty	-12.5931
▁paz	-12.5932
▁zoom	-12.5933
▁dean	-12.5935
▁amig	-12.5938
meal	-12.5944
▁marshm	-12.5945
▁fightin	-12.5945
▁laff	-12.5946
▁bawa	-12.5947
▁ecolog	-12.5949
▁gta	-12.5952
▁caf	-12.5954
▁jole	-12.5956
▁burr	-12.5956
22.	-12.5957
qiu	-12.5959
▁kale	-12.596
egre	-12.5961
▁ema	-12.5965
tyc	-12.5966
xxxxxxx	-12.5966
rosco	-12.5966
▁challa	-12.5966
▁esqu	-12.5967
eldor	-12.5967
▁sulu	-12.5968
▁touchin	-12.5968
omor	-12.597
▁woooh	-12.5971
scap	-12.5974
ival	-12.5974
▁niceee	-12.5977
▁refr	-12.5979
▁swede	-12.598
▁loane	-12.5981
bler	-12.5982
▁trimme	-12.5983
▁phoe	-12.5984
▁ontd	-12.5985
▁hanna	-12.5986
▁glene	-12.5987
gahhhhh	-12.599
ypti	-12.599
▁luk	-12.5991
rache	-12.5993
-30	-12.5995
last	-12.5995
▁dayssss	-12.5996
▁08.0	-12.5999
edro	-12.6008
duke	-12.6009
▁squir	-12.601
▁shard	-12.6011
▁grid	-12.6012
▁supper	-12.6013
▁rox	-12.6014
▁stud	-12.6016
▁protest	-12.6016
▁reduc	-12.6018
▁1.1.	-12.6024
donald	-12.6031
▁grati	-12.6032
▁baha	-12.6035
▁jammi	-12.6039
rose	-12.604
jamming	-12.6043
elsen	-12.6044
▁accessib	-12.6048
▁smudg	-12.6049
mid	-12.605
▁mish	-12.6051
▁appreci	-12.6057
▁stray	-12.6058
mlin	-12.6059
▁moth	-12.6059
▁trini	-12.606
▁macri	-12.6065
▁cyn	-12.6066
dica	-12.6072
▁vibrat	-12.6076
▁snoo	-12.6085
oza	-12.609
▁pratic	-12.6091
▁52	-12.6093
▁nausea	-12.6094
▁ohno	-12.6096
▁crank	-12.6097
▁8/	-12.6098
▁brrrrr	-12.6108
vage	-12.6115
▁musli	-12.6118
▁swoo	-12.6118
▁broom	-12.6119
▁idp	-12.6122
▁cov	-12.6122
▁mediter	-12.6124
▁loveeeeeeee	-12.613
▁frist	-12.6132
▁inhale	-12.6136
▁pik	-12.6136
iller	-12.6136
▁arggg	-12.6137
ttttttt	-12.6137
▁naiv	-12.6139
▁7-	-12.614
▁purrr	-12.614
▁communis	-12.6142
▁barri	-12.6142
▁68	-12.6143
▁feminis	-12.6144
▁lig	-12.6155
▁rear	-12.6155
▁thorough	-12.6159
▁tablet	-12.6168
seede	-12.6174
▁casti	-12.6189
most	-12.6191
wwwwwwww	-12.62
ecau	-12.6201
▁sph	-12.6206
▁pleas	-12.6211
▁rating	-12.6213
▁schem	-12.6213
▁tec	-12.6217
▁cred	-12.6217
quin	-12.622
▁matan	-12.6222
cope	-12.6226
▁81	-12.6227
rfday	-12.6232
▁dud	-12.6232
bilit	-12.6233
▁6-	-12.6234
nadia	-12.6237
▁php	-12.6238
▁financ	-12.6241
▁emba	-12.6251
mercia	-12.6259
▁cyp	-12.6261
rpm	-12.6267
▁divin	-12.6269
▁trave	-12.6271
▁clay	-12.6272
▁zor	-12.6275
▁nowww	-12.6277
▁wayyyyy	-12.6306
▁lmaa	-12.6307
▁fest	-12.6313
▁cooga	-12.6314
▁whyyyyy	-12.6318
roscop	-12.6332
caf	-12.634
▁mahal	-12.6341
swass	-12.6341
indin	-12.6352
▁subsid	-12.6356
balik	-12.6361
myyyy	-12.6371
ssshhh	-12.6382
▁data	-12.6383
▁insect	-12.6386
▁migra	-12.6399
▁pocke	-12.64
▁perv	-12.6416
▁annabel	-12.6419
▁fizz	-12.6446
ension	-12.6446
▁webki	-12.6451
eken	-12.6466
▁croc	-12.647
algon	-12.6486
▁hungryyyyyy	-12.651
▁tweed	-12.6517
rebec	-12.6522
▁rena	-12.6524
▁spok	-12.6526
▁decei	-12.6537
▁hubb	-12.656
▁epicent	-12.6571
said	-12.6571
ellini	-12.6576
▁chur	-12.6583
⁄	-14.9052
¿	-14.9053
